[PAD]
[UNK]
[CLS]
[SEP]
[MASK]
!
"
#
$
%
&
'
(
)
*
+
,
-
.
/
0
1
2
3
4
5
6
7
8
9
:
;
<
=
>
?
@
A
B
C
D
E
F
G
H
I
J
K
L
M
N
O
P
Q
R
S
T
U
V
W
X
Y
Z
[
\
]
^
_
`
a
b
c
d
e
f
g
h
i
j
k
l
m
n
o
p
q
r
s
t
u
v
w
x
y
z
{
|
}
~
£
¥
§
©
¬
®
¯
°
±
´
µ
·
º
¼
½
×
ß
æ
÷
ø
đ
ĸ
ł
œ
ɑ
ɛ
˂
˙
˚
˜
΄
α
β
γ
δ
ε
ζ
η
θ
ι
κ
λ
μ
ν
ξ
ο
π
ρ
σ
τ
υ
φ
χ
ψ
ω
ϕ
ϵ
а
б
в
г
е
з
и
к
н
о
п
р
ф
ъ
э
ю
і
׳
،
ء
ا
‐
‑
‒
–
—
‘
’
“
”
„
†
‡
‰
′
″
⁺
⁻
₋
€
ℓ
™
ⅰ
ⅲ
ⅳ
←
↑
→
↔
∆
∈
∑
−
∓
∕
∗
∘
∙
√
∝
∞
∥
∶
∼
≃
≈
≡
≤
≥
≦
≧
≪
≫
≲
⊥
⋅
⋯
═
△
●
♀
♂
⟨
⟩
⩽
⩾
、
。
し
ー
ﬁ
ﬂ
％
（
）
，
－
：
；
＜
＞
［
］
～
##y
##m
##o
##s
##a
##n
##A
##c
##l
##p
##r
##i
##d
##e
##h
##x
##C
##P
##K
##1
##t
##g
##z
##I
##X
##T
##E
##O
##k
##u
##q
##F
##J
##f
##9
##7
##V
##G
##M
##S
##U
##b
##R
##D
##N
##L
##Y
##2
##5
##0
##3
##8
##W
##v
##6
##w
##4
##B
##H
##Z
##j
##Q
##he
##ti
##er
##on
##en
##ed
##in
##es
the
##al
##nd
##or
##at
in
of
and
##ro
##as
##an
##ar
##it
##tion
##ic
##is
##re
##ent
##ing
to
##ec
##el
##ou
th
##ation
##om
##et
##ol
##ac
##os
##ul
##ur
##id
##ve
##ith
##ly
with
##le
##ati
st
##ter
##ig
##ot
for
re
##il
an
was
##ow
con
pro
as
##us
##im
##ce
##ere
##ut
##ess
##am
The
##uc
##od
on
##if
##ts
be
##ad
is
##ated
that
##ir
##um
ex
were
##em
##op
##oc
##tic
##st
##ver
##ity
##ents
##ra
##ate
com
##ud
res
##ay
##ab
##se
al
##ion
ac
##og
##ell
##ri
##ag
##ant
##ng
##rom
he
or
by
##her
##th
de
##ical
##ect
at
ch
wh
##ment
##ine
##pl
su
##ain
##vel
##ase
pati
##ff
dis
im
##igh
##ph
pr
from
are
sh
##un
ne
ha
inc
##ence
##qu
ad
##per
##ure
patients
stud
##rou
##iz
per
le
se
##ore
sp
comp
##pp
##ld
##ort
##ib
##tive
##ign
cell
me
##ys
##ress
we
##ran
##fer
##ies
##orm
##ific
cont
##ations
##iv
##ting
##ous
ass
us
ind
this
##ers
not
rec
##ge
int
##ch
it
you
##est
##ist
cl
In
##tiv
##ip
eff
di
##ens
en
##ial
##reat
pre
##ast
##ear
##act
##ia
##enti
##ep
##ard
##ary
sy
ab
inf
##and
par
##te
sign
can
##ould
##ular
have
bet
gen
##ost
ev
##olog
##ight
##ther
her
pl
rel
##yp
##ition
##ap
but
study
met
##ak
dif
inter
##ased
##ose
##all
had
##ong
##ors
##ance
##gh
imp
##ill
she
##rans
##one
##end
##ally
##ich
ph
##roup
whe
resp
##enc
exp
all
##ative
un
##ide
sc
sur
##ory
differ
##ind
his
##we
sub
ob
##ved
trans
##able
group
##ome
##oll
##fter
##erm
##vi
##age
incre
reg
signific
##rol
my
out
##yl
Th
no
anal
##ound
##ted
rep
than
##iti
##ection
##ied
car
which
##ood
up
##ath
mod
det
##ween
significant
cells
between
##our
ag
##ue
pres
##ual
##duc
bl
inv
resul
been
show
treat
##ression
ar
##tin
##oci
##ive
activ
after
am
##ros
##ction
##ok
##out
und
##ects
##ari
##ym
We
tim
##oth
li
tw
##ry
##ected
str
cons
app
spec
##ack
cor
##tein
treatment
under
##ates
mic
has
##ond
##ew
##ach
##tim
##ely
level
##ric
##form
##ases
##rap
compar
do
pos
year
their
##ech
kn
##ility
##ree
high
##ass
##ord
associ
med
##ating
these
##anc
more
##unction
mon
##lud
##ized
may
anti
##str
one
fl
##alu
This
over
man
##ons
##ace
two
##uring
##aus
##pt
##ang
control
dise
##vely
##ob
##iss
conc
protein
##ulation
##ust
##NA
##hed
##velop
##ox
##osis
##mun
##ined
##ven
##rib
using
##ater
dec
##ub
time
low
##ays
##so
meth
other
clin
analys
##dition
des
develop
##ron
el
used
sa
red
##cess
##ective
into
##action
ser
also
##ures
bi
##nt
id
##ru
results
##ke
hy
##hib
##stem
##agn
##yt
both
co
##hes
##gg
##ata
qu
##uch
##acter
##ild
gl
fact
##ough
function
##ological
there
dep
includ
meas
##ile
##ism
so
##ollow
##rain
##atic
could
##alth
##urr
##own
##uced
##cer
sam
##row
##ite
during
clinical
did
when
em
disease
system
sm
tr
they
##entr
##ogen
associated
##hem
ris
##ser
##ever
##til
vari
use
##als
##plic
follow
him
end
will
##ution
##gen
##ole
lo
acc
who
##ked
##ult
##ail
form
##ants
present
data
ext
##tig
found
##entif
sugg
its
years
wor
analysis
##inding
non
sim
##ks
model
##led
typ
perform
rem
##uct
##ici
##rapy
##itive
method
evalu
activity
expression
##ization
well
ap
health
##ium
##ber
inhib
only
##rough
increased
significantly
##tain
dem
##ple
levels
compared
##estig
pol
##hen
op
es
determ
gene
obser
partic
##ments
##fore
identif
##ery
##atory
assess
risk
##ake
##ential
pot
investig
def
##cl
min
##ale
##rop
hum
##ren
##ram
hig
different
##oid
prov
##ie
fe
##ct
##ans
##mon
fir
##owever
tum
ma
char
about
studies
##tern
immun
##ions
path
effect
##tal
effects
##ecti
##ently
indic
##adi
##ange
exper
most
prog
produc
##ities
report
exam
##raph
##idence
showed
diagn
##ne
through
##ination
supp
##ency
ins
oc
some
cancer
##av
##res
based
##ption
##ormal
sel
infl
##ences
age
if
##ful
##ited
##ody
first
##art
##old
sec
##ible
##ability
what
##ex
##arg
specific
##ectively
##inal
like
Al
##ade
month
##ause
would
any
##ix
##onstr
##ograph
test
##tical
blood
concentr
##ology
##ma
new
##ice
##ute
##air
##erg
##ft
##ured
long
patient
higher
such
num
three
##ept
appro
impro
pred
po
child
##echan
decre
surg
back
##ov
##pit
mul
##rug
##par
These
care
corre
loc
##osed
##ten
gener
micro
disc
human
##ines
need
mar
go
acid
##ature
##eth
##onse
##ement
said
rat
those
##very
occ
import
##oph
##king
post
##vers
##usion
character
groups
mechan
tre
induced
related
rate
##oma
again
where
##lex
##les
##view
##vention
term
##emb
##cop
them
wom
##tit
know
observed
chang
##uction
##its
response
bec
mol
conf
cases
##ning
sens
aff
##ural
drug
##arly
struct
demonstr
then
grow
cou
##tid
should
prob
To
##ration
wee
mean
inj
process
##iqu
our
##rac
tri
##echn
##urther
dist
col
cal
##ize
tiss
##ise
within
##ardi
##ire
bas
before
del
suggest
hand
##ulated
sl
condition
val
type
##gan
##ered
##way
##ene
##ily
elect
##ivid
##ental
pop
However
##rin
##ane
##asc
##round
mo
##sy
development
techn
##ived
##amm
##ational
total
ox
factors
adm
therapy
invol
prim
##eng
months
##are
subj
look
peri
##ness
ey
each
##osph
recept
St
phys
##ucle
fre
depend
##tics
##roph
lif
##ian
role
days
requ
##eld
respectively
prop
without
##omy
desc
sym
performed
##xim
##ores
normal
##ral
beh
sol
increase
##ross
including
##val
number
mut
molec
outc
changes
##ced
##cle
##vious
##ptom
ret
##othe
hist
infection
##ty
addition
important
##tivity
##ish
day
predic
correl
down
##cin
cyt
coll
less
potential
aut
how
mechanism
##der
lit
hyp
##ick
main
pe
##ving
##omes
sk
great
hyper
while
##arge
lower
women
##urn
neu
prot
poss
lim
old
among
There
cy
II
##ues
period
comb
##ung
stim
vir
vis
cr
##plet
reported
##int
tumor
gu
##dro
treated
review
prom
An
frequ
children
finding
##ages
mg
##ety
##med
##ilar
##oper
mat
plas
##ening
just
##ival
##ospit
sever
second
consid
cap
small
pat
sequ
##avi
##tained
##tis
positive
dire
radi
##ically
##ward
antib
##ock
rece
##other
experim
particip
CI
##eter
cardi
dose
stand
##ascular
DNA
inhibit
pul
##eg
head
It
##ms
##ality
##ves
mal
growth
##ately
##ples
##urrent
cat
mus
pain
expl
life
multi
##ividual
reve
att
inform
identified
##jor
gr
chem
complex
symptom
##ield
##fl
sit
describ
sing
##ither
common
fib
vit
##abol
lip
factor
##orph
flu
ep
off
provid
bre
respons
rele
pers
CD
caus
##acy
##ronic
similar
##ior
work
surv
case
##atis
analy
deg
body
##pha
memb
##ished
major
##tered
##otyp
calc
##ified
tra
##ogn
Ch
tissue
tem
##ets
av
individual
##zym
remain
reveal
though
even
ro
##ication
##RNA
hem
against
measure
your
##las
fam
aim
press
phosph
##ospital
class
##hip
vol
##arm
now
##ressed
single
cle
previous
presence
four
techniqu
surf
measured
abs
findings
mice
##plications
##ract
lead
contain
##esting
qual
surgery
##estion
##hy
primary
##ties
right
binding
##erc
##earch
behavi
admin
metabol
complet
##though
diagnosis
influ
fem
initi
evidence
##tle
nucle
##otic
##ension
As
hel
##ymph
improve
##ography
isol
##ateg
PC
organ
##oss
reduced
because
targ
brain
early
neg
eyes
##ocyt
resist
obtained
due
same
##zed
##ests
population
lab
want
exc
differences
ang
##ark
##por
underst
##oles
range
get
##till
##raction
##plant
receptor
##uss
##urs
nec
##andom
subjects
##etic
line
proteins
##vere
requir
##uce
conditions
##ink
good
##eu
##ator
being
ele
##sych
following
##GF
est
genes
##onal
arter
cult
##anced
rati
##yn
decreased
weeks
lymph
set
hydro
men
either
##hesis
##aging
enh
valu
Pati
##cri
disord
##vir
enzym
still
developed
##ength
studied
##ax
scre
species
##erv
les
##ave
##au
made
##ann
serum
##ont
included
intervention
##gn
##roscop
appear
pur
proced
part
medi
very
see
oper
suc
rats
large
##ulin
adv
##red
pattern
survival
concentration
##ste
research
##ised
##aking
##cent
samples
##az
prof
interaction
every
known
inflamm
##amic
fat
##asing
weight
investigated
synt
##elf
der
way
##ling
random
ke
revealed
##oh
alpha
free
determine
water
relations
prac
left
dependent
evaluated
phen
##ame
here
further
##over
demonstrated
##ins
beta
gra
standard
prol
concentrations
whether
##cept
effective
membran
heart
##och
##osure
information
bel
spect
##aneous
design
##und
around
##operative
##omet
conduc
hospital
rest
##atin
reaction
local
question
##oy
manag
proper
anim
determined
therap
che
##verse
kg
##ll
symptoms
pri
vs
many
Our
##ouse
pa
IL
fail
equ
quality
liver
relationship
pressure
##ribution
provide
##eptid
surface
estim
mm
bone
approach
##esis
stress
plasma
dom
occurr
##ensity
cir
gluc
rates
change
examined
##ble
greater
##fic
functional
chronic
##pec
##abl
##ually
add
##eration
signal
injur
##up
fac
##orb
discuss
param
several
##ission
star
diab
##ull
molecular
mass
##ings
contin
acute
##iving
##plication
##ists
methods
##omic
values
characteris
strain
target
support
intra
death
sex
ul
##otherapy
##ner
##anti
phase
##icient
br
assessed
better
HI
Patients
region
Com
understand
##amp
##ours
##lement
least
ve
neur
strong
mort
activation
dim
sw
##viron
##atus
##ision
direct
polym
shown
experi
##ways
negative
##atively
##ification
psych
chrom
mater
##iven
##sequ
saf
##ched
##ened
medical
##amin
##Cs
might
##ably
hep
##vent
##ince
##rome
possible
current
reduction
##enal
Ad
##ults
##ters
confir
##SA
ratio
adj
loss
##hel
##ocy
help
##itivity
##tically
##epend
##MP
##uration
much
record
##ules
##ug
flow
##ulations
##CT
##ateral
various
bacter
##itis
##iter
allow
transcri
##eline
proble
involved
##ored
evaluate
structure
cent
virus
vi
##ellular
som
avail
vitro
##ostic
##rast
mortality
repres
##icity
outcomes
Am
##pped
##ubl
##pective
multiple
few
##ocytes
difference
##reg
program
turn
lung
All
##uted
##ancy
place
recom
severe
identify
ca
family
##ious
size
te
success
order
commun
##ople
little
##acc
CT
detected
side
exposure
foc
compon
##oun
##eters
mark
reac
##istration
pregn
strateg
light
##ady
regul
particular
##ides
mechanisms
production
muscle
formation
establ
environ
nod
general
bene
performance
##roduc
independ
Further
self
five
followed
##emia
synd
resid
active
area
models
##wn
controls
##rial
short
sus
cur
##ologic
##lation
management
##tions
##atures
novel
##opath
Ex
analyzed
prior
face
##etes
##went
responses
lik
super
CO
carcin
ach
membrane
association
##ount
tox
##orts
surgical
whereas
For
skin
##CA
##uk
##nal
people
last
##oses
toward
sal
##ended
At
going
##els
carb
Cl
real
gly
seem
circ
##roc
call
##iciency
##olution
##ances
##ysis
does
field
dys
differenti
enc
Res
##amine
play
considered
##verage
syn
##ergy
Ca
outcome
score
stage
value
compound
publ
consist
properties
##ographic
##rr
preval
achie
##eutic
cross
##rag
dam
##ochem
vers
Here
##inant
state
volum
week
##ler
HIV
##ocial
however
imaging
MR
behavior
##ices
breast
temper
increasing
nan
##AP
resistance
presented
site
rap
No
##odies
status
cycl
##plied
##rid
##icacy
six
##tinal
viv
diseases
regard
thought
Ac
emb
injury
##asis
participants
##eding
parameters
frequency
result
statis
mit
##ret
prepar
##ae
##oring
across
##ule
ill
##hing
contrast
amin
gast
cause
make
##ork
##ether
required
##ensive
Although
##rad
received
genetic
##eric
too
##ially
##inc
prec
available
oxid
##ison
##lor
environment
bro
##ried
vivo
##of
PA
air
decrease
male
healthy
investigate
##tice
##ording
AT
technique
##entral
syndrome
##itation
characteristics
renal
never
##ained
##CC
##ators
magn
count
##iat
bar
sil
must
Un
atten
focus
cre
indicate
poor
seen
conducted
continu
##ower
impact
looked
think
times
##oice
##na
poly
##aps
incidence
##ogenesis
neuro
physical
young
eth
phot
##ier
mediated
AD
##etal
##olic
distribution
metast
accur
##onic
sch
##osition
tested
lesions
asked
previously
deli
away
On
mac
peptid
##iological
MS
efficacy
let
wa
##oplas
##rine
highly
stimul
##ressive
paper
history
enzyme
administration
baseline
##ef
##ibility
sensitivity
systems
CA
drugs
##utes
described
open
##go
therapeutic
##aken
##ones
hom
cour
hal
contrib
ability
optim
index
mRNA
caused
isolated
Pro
He
##medi
##atal
step
refer
glucose
domain
kin
via
##tr
rapid
##vant
##omp
artic
##opt
fil
percent
dev
RNA
assay
obj
given
tub
detection
ear
complications
inflammatory
##aw
combination
containing
##ering
room
After
types
defined
##elt
home
maxim
morph
sample
##iting
##terior
inhibition
##monary
##mit
hypot
improved
diet
exhib
likely
##ortion
cardiac
##ool
overall
monit
often
##otype
cere
OR
individuals
ver
##fusion
##ogenic
##vement
bo
da
assessment
take
prolif
someth
wal
derived
##normal
energy
##romb
##line
##set
##ales
correlation
failure
something
##ital
another
valid
##leep
##thing
prevalence
Sc
hypert
integ
PD
pharm
diabetes
sites
CR
hours
animals
length
##ising
##izing
volume
expressed
liter
##abil
##ygen
recogn
immune
##de
criter
##ulf
##PA
impair
tumors
features
##ands
##ces
events
##cep
feel
experimental
chall
release
influence
##ledge
larg
subst
##iatric
point
Ph
##ense
##ird
kid
nit
insulin
prost
##ude
female
##AS
##aring
train
##eness
ml
##racellular
##app
sequence
##istic
##ember
indicated
transcription
analyses
##tine
##enced
epit
doc
material
procedure
position
ste
elev
surve
collected
chain
mid
relative
lin
##ecting
food
coun
abnormal
oral
With
evaluation
purp
cri
##ables
average
why
##ason
needed
plac
##uture
Im
##uff
visual
independent
alone
##antit
useful
##roscopy
##entric
##inally
mom
net
course
##ern
##den
methyl
orig
##PS
scores
##enz
##rob
transplant
solution
injection
produced
smok
##ient
##ectomy
##ove
social
disorders
ll
emerg
sour
predict
clear
cer
util
got
trial
demonstrate
asp
put
underwent
separ
screening
##ching
dyn
temperature
repe
complete
apopt
content
say
adult
approxim
Pre
cry
until
##io
##emic
correlated
pathway
activities
wall
Rec
##more
represent
applied
dou
characterized
##rim
lig
confirmed
since
heter
top
initial
IC
minim
PE
tests
##yro
##lying
lay
knowledge
cellular
transfer
##cence
scale
dri
recent
##artic
door
according
##outh
Ig
More
mix
regulation
Tw
criteria
oste
vascular
tog
limited
##erve
##DS
##rogen
together
fold
amino
##bo
cereb
##istered
vacc
tissues
measures
##omas
best
find
density
##hetic
controlled
##pecially
nat
benef
lack
regression
##ee
sleep
##ovascular
areas
progn
##omal
spe
tool
ref
key
stop
##orn
fraction
aden
##olar
##otox
occurred
literature
guid
biological
central
able
receptors
observ
successful
synthesis
##otor
act
##ying
techniques
invas
duration
cogn
##rees
##oscop
##overy
malign
##coh
affected
tell
##port
##Ps
parti
Furthermore
##mic
especially
training
along
understanding
diagnostic
combined
Med
artery
serv
lipid
##ining
come
coron
educ
##be
versus
pH
processes
agg
ess
##ites
enhanced
##othel
medic
stimulation
diss
trials
world
mi
diffic
##ah
##pr
section
##ST
horm
practice
##oint
ec
##ney
power
knew
exerc
angi
Me
recomm
carcinoma
quantit
regions
past
##dom
acet
##iratory
median
##pite
thromb
respond
##ext
BM
pulmonary
compounds
coh
proposed
##opro
patterns
##orbid
##NF
##rate
##ocyte
##ipher
suggested
half
##less
labor
refl
lear
biom
oxygen
subs
signaling
adults
secre
##ocol
suff
happ
##pond
##OS
Ind
having
plan
##most
sum
##ument
hard
##erate
##aff
##ploy
pass
mother
took
dynamic
##orption
##AT
Stud
potenti
##ivers
##ict
epid
pharmac
degrees
antibody
resulted
pros
established
safety
##ocard
const
IV
strains
sensitive
culture
discussed
##ogene
ax
daily
interactions
agents
consum
kinase
##ochemical
later
III
tal
##utri
##sing
##isting
##ints
##xt
ed
epithel
##ropri
slow
PCR
##irth
breat
alter
necess
measurements
netw
soft
approximately
own
disorder
whole
displ
antibodies
although
mel
##last
situ
##rosis
neurons
felt
suggests
##ethyl
##augh
promo
rang
inhibitor
##lu
hands
purpose
progression
subsequ
action
squ
PT
arm
##ytic
suggesting
pregnancy
ventric
selected
don
ST
alcoh
##estinal
cost
##RT
antigen
provides
##rh
plat
##ectiv
##ights
undergo
experiments
aged
glyc
Two
CS
##ries
far
##irl
damage
yet
cop
coronary
future
##resh
bil
older
##ump
examination
colon
word
increases
inhibited
auth
altern
additional
seg
testing
hair
proliferation
##arb
##put
##ze
secondary
provided
neut
peripher
night
full
##uck
stro
##lob
mouse
##reatment
##respond
##terol
prevent
structures
improvement
Thus
One
##arc
yield
##ading
bed
wid
postoperative
##AC
Sub
##enting
Se
application
once
critical
leg
fron
diagnosed
detect
##af
AC
##lusion
exercise
ov
capac
describe
##ochond
tom
affect
ol
tas
ant
accum
access
offer
ER
require
fluid
##ession
reduce
##10
randomized
interval
##chem
belie
substr
cm
Using
lat
wat
wr
remains
eng
almost
endothel
##ayed
mutations
thus
turned
sure
microg
basis
girl
##yroid
wanted
implant
functions
toler
gam
##me
consider
fluores
hydrox
lines
experience
components
cut
##II
bur
Wh
##function
procedures
##arch
##uter
chemotherapy
##ared
adverse
log
strategies
catal
facil
HC
run
Con
##oids
##atitis
mem
essential
protocol
biop
adap
##oster
apoptosis
chann
leuk
correspond
comparison
kill
chemical
Health
##rying
metabolic
##rog
##agon
distin
obes
include
infected
EC
block
cognitive
nerve
fract
series
calculated
upon
perce
birth
conclud
##ele
##DL
##BP
problems
##encing
eas
##ergic
eye
##akes
HR
administered
attention
##ancre
##to
clos
problem
ter
fer
When
##rolog
absence
##ream
##ope
##ropriate
polymer
retros
employ
onset
done
peripheral
##ina
mig
fing
cohort
article
voice
taken
##rm
susp
##oxid
simple
##LA
infections
##agen
late
setting
activated
##ulate
depression
##okine
really
wide
##hest
##ots
thick
populations
pathways
reduc
Of
delivery
##atisf
rare
dat
##LC
alcohol
community
degree
stra
ple
differentiation
bu
##ventional
war
##AD
##mission
##ortic
molecules
las
examine
resulting
above
peak
##gin
structural
house
PR
reli
sound
##aining
carried
particularly
always
gre
Sp
##here
et
##titution
shif
doses
CH
induc
conn
##occ
ischem
school
achieved
deep
sat
od
##omer
mL
cycle
stable
white
minutes
mes
products
metabolism
##naire
next
##MS
##riend
pair
proportion
cardiovascular
myocard
approac
aw
enough
rad
recorded
natural
peptide
dig
making
dark
fix
stem
importance
##ps
inhibitors
mitochond
frag
wild
opp
eight
##imens
##ged
markers
glob
Moreover
##otid
unc
calcium
Re
plant
prefer
woman
severity
variables
##land
ampl
marked
embry
rou
came
label
public
longer
##MA
chromos
##ges
##oz
##eral
close
HP
##ics
constr
respiratory
capacity
##ired
transport
person
Both
compare
##umb
means
stroke
give
##formation
famil
##inical
nurs
acids
pancre
##use
systemic
##brid
difficult
prote
ra
exposed
certain
##istry
keep
elevated
electron
##inated
kidney
##sc
##etry
special
##olesterol
muc
##elet
estimated
##CR
thin
pig
host
##oral
##icians
extract
highest
resistant
summ
regarding
third
iss
cod
behind
##ipp
recovery
##ophil
phosphory
##rolled
##isms
seven
chlor
Sur
quanti
##ape
ultr
therefore
inflammation
##kn
##ending
##ories
ion
probably
terms
consistent
moderate
induction
NO
pret
##take
repair
##ds
component
strength
medium
ever
dysfunction
Therefore
##oot
glut
maximum
appar
##li
nor
survey
sn
py
told
linked
repl
cryst
SC
conventional
##hood
recurr
##ogenous
confidence
statistically
designed
immedi
##tif
objective
ent
bio
SD
ide
hypertension
##utive
mil
Group
grade
##odium
ye
motor
##urrently
##ressing
radiation
clus
double
##RS
##umin
treatments
ble
ster
AP
necessary
enhance
placebo
laboratory
##tib
##equ
instr
MRI
hold
##urb
##ars
##ank
nutri
##ficial
##inary
##tional
limit
mind
moment
linear
view
##duce
nuclear
irr
directly
bacterial
led
ventricular
##ulating
##roscopic
tempor
relevant
fall
CP
##onomic
electro
amount
##MR
leading
##ectiveness
##ash
##eff
##ique
acqu
traum
animal
##SC
causes
neck
bound
appropriate
aimed
##man
color
##ready
yes
uptake
rather
monitoring
implement
##aph
##iety
sequences
distinct
satisf
##ray
internal
##osa
##bs
##ritis
indicating
##rated
promot
recently
memory
##que
##isted
already
inside
near
underlying
encod
interest
##inity
##ident
specificity
reproduc
MD
##aling
##active
AL
antagon
sulf
ur
##ped
hyd
black
fram
var
event
interventions
##ned
##pling
mamm
anything
##phal
##sw
mutation
dra
living
polymorph
modified
intensity
detail
become
##ded
challeng
ven
trig
kind
nothing
##rix
MI
TR
strategy
##anol
dimension
ge
went
viral
mental
ann
approaches
called
adjus
##iver
females
comm
##encies
##neum
introduc
gamma
occur
##self
##oglob
Inter
variation
##atives
Na
restric
fin
clinically
quantitative
SE
effectiveness
reviewed
friend
mouth
terminal
##otypes
stay
Over
Co
chest
##isc
##irus
##read
remained
##raz
##orbidity
saw
relatively
accuracy
During
RA
##iotic
##ariate
toxicity
images
source
##omen
males
education
frequently
contribute
ped
##12
measurement
magnetic
carbon
##yg
degrad
Compar
evolution
lesion
therm
endothelial
developing
environmental
nm
mainly
adoles
suscep
consequ
subsequent
exhibited
Among
advanced
ATP
gave
##osing
students
lact
alternative
cholesterol
ME
diam
liqu
##hydro
arth
##rot
##arily
##orting
##hesized
contact
bloc
imm
identification
hybrid
thing
##OR
dog
##used
##alysis
intake
forms
myocardial
##perm
expected
##NS
continuous
fav
IF
physiological
taking
transition
Des
slight
perf
facilit
##ometry
bond
anterior
SP
answ
microb
##any
gran
PI
cos
##ococc
scan
quantif
hypothesis
front
arterial
composition
remov
antic
agre
return
reson
##plicated
##ometric
receiving
##dle
authors
##etric
upper
shows
incor
predicted
infants
miss
##by
extent
tend
concern
sho
anx
Results
##plas
prevention
wind
##itude
safe
extre
abdom
rob
serious
enti
selective
categ
TNF
agent
appears
##illary
##ella
things
substanti
##ats
hormone
spati
looking
Ser
##50
larger
##ject
unkn
resection
started
##izes
##ils
##SD
##tering
weak
##ecutive
alg
##oprotein
##hyd
##elling
transplantation
unknown
macroph
Americ
learning
read
gastric
err
regulated
bacteria
AB
metal
##SH
la
##venous
mild
points
##side
load
move
efficiency
hepatic
interfer
##ilt
liquid
sem
epithelial
##ocal
cerebral
Di
##opathy
prospective
involvement
By
##andid
Data
Ar
maybe
##ively
emo
##oor
corresponding
mutant
reports
stability
recru
tet
secretion
hepat
SA
selection
sci
intracellular
questionnaire
reached
wound
arms
MC
Ass
network
generation
recomb
matrix
replac
##jection
##rinary
Study
CC
defin
##iles
##rier
others
recurrence
##amide
smoking
experiment
##aster
percentage
chol
genome
generated
microscopy
CD4
reason
completed
ben
invasive
##ectal
##ows
##LI
cover
avoid
stimulated
prepared
adren
quick
##eti
##ives
resolution
processing
accept
stri
TB
transl
##PD
##ID
fast
datab
vess
neurop
##rum
revers
interp
completely
##pping
subject
image
##pers
RT
##ER
responsible
pneum
##cted
unique
variety
origin
mor
divid
chromat
strongly
myel
##osy
matter
reconstr
force
##iled
direction
##ternal
##ortex
item
spinal
##ula
##ervical
AR
##MD
##ultaneous
incorpor
iron
profile
##erved
attem
drin
establish
fit
##NP
fill
MT
sodium
enzymes
##mia
countries
##itary
gas
break
##ES
reference
bal
##ancer
##utaneous
##lder
space
product
malignant
services
##tile
undergoing
center
##acts
solid
HB
##onia
##iology
document
analog
##isp
investigation
##estern
systematic
highl
diabetic
inst
reactions
subun
##clusion
mob
task
##tivation
love
HT
adhes
##ify
accumulation
isolates
HS
seemed
ery
applications
cann
##ifically
exist
mechanical
##eta
##erative
pal
##cers
father
biopsy
commonly
##oxy
unit
##pled
hemat
##odyn
interview
medication
ground
##orrh
##teen
majority
##hyth
stages
published
ng
gest
breath
neurolog
soci
humans
coli
lateral
entire
towards
infer
benefit
appeared
##lo
Partic
##arr
AI
anest
inhibitory
##tra
##itable
##DNA
device
##undred
nature
start
melan
profession
advant
urinary
sexual
Fe
prostate
ty
##aces
context
usually
##arian
potentially
conj
partial
resonance
consumption
base
##ortun
compl
hundred
##inations
pen
##O2
Mul
##ather
broad
ultras
mur
asth
Clinical
induce
Bl
needs
words
##overed
##ontaneous
optimal
princ
oh
substrate
##inus
hear
Inc
They
##abb
gel
##aged
##oration
trad
members
alk
##otide
operation
disch
assays
rot
norm
PP
currently
lap
supplement
mitochondrial
##obacter
Three
morbidity
confirm
persist
manner
grad
miR
except
rh
##rel
##AL
specimens
complexes
Sy
##elines
ten
deriv
##ector
##tility
plants
##uls
oxidative
iso
produce
##rams
nine
auto
transmission
nerv
working
##iversity
parents
ful
plus
##ches
decision
##00
simultaneous
regulatory
mys
##bers
dimensional
##ruct
divided
occurs
sperm
gastro
##olip
cortex
subt
Le
##aves
##iness
Ab
##orith
##reshold
prognosis
efficient
rib
##otrop
##ibr
vaccine
##ode
infar
##MT
recommend
##ico
feed
##version
resour
phosphorylation
trend
layer
##adder
predom
involving
hour
##pati
maternal
anxiety
middle
ech
##artment
formed
constit
inn
cervical
paras
thor
##min
##urop
removal
blind
tradition
retrospective
##hens
neon
agon
held
##idine
Per
##erous
##ributed
materials
neural
##ycl
illness
##enge
final
matched
interf
thyroid
fatty
Treatment
frequent
##onucle
constant
##ton
obesity
algorith
##osite
segment
conclusion
##day
dop
despite
Addition
assign
located
tract
##oxide
##pression
widely
While
laser
affinity
pan
below
##sel
someone
solub
cathe
reducing
throughout
##ik
global
prolong
receive
core
##ta
reach
##ronch
dro
##acch
CB
gender
signs
hip
joint
wave
##ohist
marker
maintain
distance
trying
spontaneous
adjusted
##ture
chec
IR
##11
mill
himself
##itone
posterior
ure
acetyl
dynamics
cultures
abdominal
anat
heat
Ev
bleeding
earl
abnormalities
ir
respect
ray
fluorescence
##ids
alb
haem
sust
collagen
mixed
extracellular
everything
fed
odds
list
##53
##ister
inser
hers
bit
basal
kine
du
predictive
##AB
Most
##rec
heard
Particip
##pectively
enter
ED
ok
big
dil
asym
fetal
impairment
adequ
nervous
arr
challenge
##flu
consecutive
link
experienced
##ested
relation
motion
##SS
##irty
spatial
##unt
##odynamic
##onin
successfully
intestinal
date
temporal
attenu
repeated
flex
leads
toxic
##icle
PG
threshold
significance
urine
##eletal
tomography
assemb
seems
spl
aggreg
Ca2
##ibly
##ubation
explore
intermedi
cytotox
olig
aortic
staining
pulled
extrem
##yst
##ologies
##NT
##ush
CF
manif
degradation
questions
sed
added
diameter
intravenous
requires
BMI
rich
biomark
choice
roles
##asal
graft
prognostic
coeff
vas
multiv
CM
kiss
##obic
candid
Cont
account
assum
reactive
elder
Pl
##eal
ves
##crib
foot
generally
AM
fully
phenotype
residues
fluor
##oked
##udden
IFN
else
Ag
##okines
vitamin
##upp
cold
molecule
contrac
##ards
external
irradi
rev
pathogenesis
jo
En
##ectin
promoter
relationships
Reg
infusion
Ne
migration
deliver
##ears
##ided
##trans
superior
por
plays
channel
NF
US
##rehens
epis
##olved
##ori
exch
statistical
promising
##cutaneous
feas
states
guidelines
##ophag
hur
Despite
##EC
variable
##imen
sudden
doing
##rical
adip
Finally
##ician
smile
altered
explain
swe
##immun
AF
##seud
search
neuronal
##yc
enrolled
##ife
pregnant
gain
##ention
hor
BP
uncle
##ills
transform
dietary
vel
impaired
tried
##osin
Sim
occurrence
fund
##ili
operative
heterogene
##OC
obstr
aspects
ES
died
##ED
deficiency
##ica
obtain
thickness
asthma
PK
cas
har
ultrasound
##ients
retin
##lasts
vary
##herence
aer
hepatitis
##ytes
##usions
##riers
stre
band
recip
lost
rapidly
IgG
polyp
pancreatic
feet
##ocl
numbers
whose
##rief
##urope
##fact
tit
##RA
##ologically
nanop
targets
outside
##verex
##orter
cultured
Hist
cord
lys
differential
movement
marrow
allowed
closed
build
medicine
ana
nam
##itud
##ema
##ounts
proxim
recommended
bind
HA
units
PS
comparable
chromatography
Trans
allows
LV
concept
elderly
associations
##jects
costs
##stead
metastasis
shoulder
##hesia
orth
exce
alterations
Af
admit
pack
god
myself
##isation
contribution
Based
##ger
elements
##ptions
remember
knee
onto
platelet
##cles
conclude
began
complement
##zing
tumour
aud
##teb
classification
programs
radical
##ises
trauma
ran
MP
##ache
glass
indicates
specifically
noted
address
emph
##ese
recurrent
##fully
pi
continued
tight
pediatric
bow
recognition
##olytic
compr
organic
PB
domains
##HD
##ert
##tibility
stood
theory
location
ori
PM
CV
randomly
dont
elim
polic
rabb
Bec
diff
accurate
floor
##cal
##ley
##TP
exact
finally
sor
##yle
##osp
slightly
##ground
begin
##ulatory
lips
Sh
believe
ligand
##ias
relax
cancers
behavioral
growing
metastatic
profiles
##rown
##pts
behaviour
particles
clinic
determination
##ii
Europe
##ria
absorption
families
computer
root
peptides
From
PF
immediately
estimate
blue
electroph
##ades
NP
targeted
New
##avy
forward
##ucted
AS
purified
SS
##ancies
earlier
dr
##oscopy
walked
##usc
##enter
live
##oscopic
##rophy
amb
hypox
eryth
visit
##allel
ratios
practic
dead
fung
infarction
therapies
bronch
##apse
spectrum
den
##ologous
SI
agreement
##osomal
extrac
pit
understood
##cents
chromosome
##reated
fine
oxide
ring
true
##astic
okay
discrim
bus
traditional
##iral
leave
characteristic
signals
##bed
technology
mode
potent
##icked
talk
correct
placed
media
##ushed
microM
bad
basic
benefits
##ype
accomp
BC
green
##VA
hot
##osine
benz
Tr
exclud
Scale
VE
##angu
##osal
bat
variability
employed
##enic
##group
threat
soon
showing
counter
##ellent
hell
##ucid
##care
Overall
##ophys
##urg
curve
analysed
abund
protective
Sever
##ocar
comprehens
predominant
cortical
##uary
##ring
name
Dec
##ams
injuries
antioxid
polymerase
NH
##ester
##ament
Acc
Afric
donor
progress
protection
lean
Six
existing
table
Ins
clearly
vag
providing
divers
focused
sup
wond
ens
lymphocytes
sectional
##LR
##rant
Since
fracture
sources
occup
issues
##ooth
##ectivity
##irect
##ippoc
##pted
##oon
dogs
Twent
phosphate
Twenty
biochemical
American
pool
descri
##iform
##EM
optical
disapp
Participants
##letion
minor
Be
##inf
##oke
##hal
membranes
excess
soil
arch
fragment
routine
stabil
Mean
Hospital
gold
##ops
venti
onc
cruc
##ogenetic
Jan
institution
mess
##ippocamp
##olec
feeding
##acchar
conver
Gen
##ontin
ovarian
implications
transf
##phosph
defects
recombinant
computed
recognized
nucleus
nanopartic
OH
emergency
overex
reconstruction
##oglobin
haz
immunos
nodded
changed
land
fusion
phenomen
##ime
##tenance
##kin
CSF
##aine
##aryng
physicians
failed
macrophages
defic
Four
##iffer
opportun
extraction
##itively
##ervation
bab
shock
##16
##icular
speed
contained
##IP
##rane
Eff
sequencing
uns
immunohist
neoplas
preoperative
LC
distal
consent
##orks
##aptic
veloc
nursing
MA
##ercul
lapa
bran
fingers
didnt
neph
##itus
regular
##mitted
bot
poll
adapt
mM
polar
##imer
##HC
fell
De
intrac
AA
##iling
blot
achieve
##ilep
smaller
##antly
excellent
##odes
##icles
possibility
##argeting
whis
tolerance
ischemic
##ophage
steps
##yr
smooth
prem
neutral
sun
pathological
genomic
propose
accompan
orient
service
derm
venous
fibrob
coord
none
lot
DM
equal
cortic
##OL
##iotics
fish
##GFR
AN
##lim
apparent
HF
cytoplas
##ocation
Bi
morphology
##activity
nearly
##rous
##aline
##OD
##RNAs
synthesized
##bal
instead
HD
##ranial
susceptibility
presentation
observations
favor
idea
##osterone
##osynt
surpr
##stream
disru
adolescents
unclear
##lyc
morning
##eli
##intestinal
teeth
preparation
##umab
Par
phone
##rins
##cler
expect
fear
heavy
shift
ischemia
os
##inate
endogenous
milk
##ospitals
personal
hippocamp
shape
##apan
bladder
##back
framew
seiz
##osyl
marg
##13
kept
##itoneal
##olysis
maintenance
Because
##hers
##ging
adhesion
##ench
boy
##MC
##irt
##ET
accel
CY
##HA
attack
##let
prolonged
##igible
stopped
##athy
hydroxy
elucid
coming
T2
suitable
hydrogen
noise
##BC
preven
##Cl
##inese
##iet
necrosis
3D
##idal
delayed
fibrosis
oil
variants
complication
classified
autom
January
##rium
##ipped
##OP
reliable
plasm
tun
NA
port
micros
intact
##gue
spectrom
HCV
muscles
dental
El
slowly
says
parallel
discharge
getting
element
##vals
org
stimuli
bilateral
intermediate
##aving
replacement
National
records
DR
mov
tools
Cons
catheter
initiation
finger
##opic
caro
##ury
##aria
cytokines
targeting
SL
spectroscopy
height
hall
##ochemistry
GC
pac
fire
##oline
moved
surround
observation
angle
antim
##elled
ord
##room
##oved
##ief
disturb
gone
Cr
typical
stom
mr
rise
progressive
informed
##fort
DC
quickly
whom
Immun
depth
assigned
surge
exchange
tail
Is
psychological
##IS
##thal
##ione
nons
##ancing
Subjects
communication
dest
demographic
##umn
Recent
goal
TC
fixed
became
primarily
balance
mis
uter
standing
##ought
smiled
developmental
herself
sufficient
circum
##uth
##eting
##urys
max
extra
extensive
##lycer
unf
cla
admission
seed
##anth
PL
staff
##otal
manifest
oxidation
brief
Chinese
analyze
cis
##unte
epidem
opi
hospitals
intervals
metastases
musc
##alian
ads
equival
##unc
psychiatric
closely
##ophageal
##aries
node
TA
devices
##FA
##genic
varied
minimal
documented
SN
ranged
healing
UV
IP
implementation
invasion
##patient
##rought
IGF
##EG
intern
planning
clim
##head
Dep
High
##oxyl
actin
graf
##RP
schiz
comparing
##time
##iment
regen
kD
fig
##raw
##icrob
periods
independently
Western
remaining
gastrointestinal
extended
meta
neurological
##itin
##elect
##alpha
bul
##rang
jud
channels
cys
database
CL
feeling
explained
ET
behaviors
genotype
Japan
vac
##osomes
hemorrh
TGF
validated
cav
promote
adequate
bes
GP
maintained
EP
Ap
vein
##organ
athe
CE
##uvant
fractures
langu
hab
raised
##rophic
healthcare
ing
antibiotic
Only
##clus
proximal
##asons
##ignific
Met
Cu
retinal
Previous
risks
Several
inclusion
neutroph
burn
##20
##actic
United
eti
radio
##ophren
possibly
##US
subgroup
##ocrine
##HR
admitted
perceived
##uctive
emp
##tor
younger
represents
algorithm
collection
pathology
##ux
suppress
##certain
possess
OS
Child
occurring
germ
tel
partially
princip
subunit
Hy
p53
##leuk
satisfaction
dry
girls
walking
coupled
transient
makes
radiotherapy
##nel
##ocarcin
warm
##habil
acquired
##anned
engine
shook
gon
##gged
##elv
##yond
antig
commerc
##anine
caps
extracted
deficient
nucleotide
##isions
##tingu
labeled
indust
opened
nurses
fresh
diversity
congen
adjust
benign
track
crucial
injected
lob
##ding
Or
yeah
electronic
limb
##orage
removed
soluble
##oe
meet
sten
Gl
Compared
largely
perme
thym
##azole
LPS
framework
##ilateral
improving
concluded
markedly
##rew
intensive
quite
national
synthetic
replication
##ococcus
background
prediction
sti
dele
##erculosis
##IN
challenges
presenting
##14
regional
localization
degen
If
son
precurs
example
inac
happened
ask
spread
##omit
##ogens
ethanol
maximal
viol
##avage
substantial
integr
dominant
theore
gradi
hearing
##BS
##pro
mutants
Em
obvious
cannot
absol
localized
Exper
##ozyg
Und
##rie
##operatively
sense
##ipl
dors
##entical
volunte
##itative
parent
##iance
practices
##rosine
RR
##IC
roll
##oclonal
laugh
pneumonia
summar
workers
amounts
newly
belong
##UC
logistic
##ogra
DA
cad
positively
reverse
minute
ranging
epilep
##sp
Spec
exhibit
##arrow
##itudinal
##stolic
##otomy
transcriptional
##ners
items
devi
endomet
SR
##oin
capable
Follow
actually
swit
beneficial
sampling
sent
##rocytes
persons
DS
antagonist
multivariate
distingu
##itory
##wide
suspected
##ologists
##ming
clon
latter
influenced
ane
highlight
ball
beyond
organization
vul
worse
##ycin
leukemia
FA
atrial
walk
intr
fa
##vascular
verteb
measuring
doub
burden
##tively
nanoparticles
##18
MMP
expressing
fiber
Patient
knock
##vern
comprehensive
HLA
PET
secret
##aught
decl
conjug
native
metabolites
##acer
medications
velocity
childhood
dos
pict
##econd
directed
antigens
sensory
impl
aspir
diverse
appearance
immuno
thorac
clar
University
##ek
identical
egg
error
##cribed
##wise
fal
pulse
schizophren
amyl
effectively
consequences
##plasia
##habilitation
twice
##come
predictors
probe
##25
ru
unt
diffusion
describes
affecting
##enchym
easily
encoding
foll
job
explored
##eptide
##beta
plate
lymphoma
CYP
poorly
aneurys
##ectious
neonatal
scler
economic
##ociation
##ban
thinking
team
variations
##ellar
try
Ob
##ued
##aze
##icrobial
##enty
decline
participation
ago
requiring
##ris
emotional
mothers
jack
introduced
output
suppression
##ai
check
##A1
window
whisper
Zn
language
sinus
##appa
##uting
includes
hope
estimates
ker
hop
cytos
solutions
sorry
irradiation
skeletal
Some
H2
##leukin
Hg
valve
na
antioxidant
##arp
stomach
clearance
Sch
vessels
kDa
##ette
spin
decreases
Additionally
##atase
persistent
##ifications
histological
##lys
MAP
physician
Comp
functioning
##oney
##ypt
deb
antibiotics
resources
vaccination
treating
contraction
FD
Post
grab
##EP
##born
accompanied
presents
System
colorectal
easy
HCC
Sm
crystal
aims
touch
brother
supported
strand
##urally
ce
Col
##asting
perfusion
cytokine
consisted
airway
PV
##vate
ones
##ements
deaths
interpret
Cor
gang
##ocardi
##aching
Int
column
End
rs
ELI
insuff
##ovirus
serve
dependence
LDL
chap
contains
residual
minimum
ren
Cell
Cd
running
storage
anyone
kit
sustained
magnitude
answer
Pol
networks
##enza
illust
pap
delay
original
biomarkers
scanning
affects
##mental
defect
conserved
win
gland
obese
plastic
##where
systolic
mand
hit
hydroph
States
Analysis
monoclonal
shap
##icin
competi
expand
EM
##ware
LT
##oside
fibers
##hythm
##LP
rhe
mostly
mer
everyone
Mod
##hold
Ep
##times
##aemia
HPV
wait
thermal
ton
displayed
suppressed
##ana
##unct
straight
sched
##ensions
##entia
##DM
modification
facilitate
##ryl
##Es
##19
Medical
adherence
forg
recruited
gal
friends
pseud
Cancer
producing
suic
pla
##Hg
##ermal
reper
##tives
corne
organs
skills
allele
TP
robust
##roscler
##amination
detailed
regimen
##abor
narrow
cluster
released
elic
saline
##amate
symptomatic
starting
assist
separate
##henyl
ions
sear
recommendations
waiting
##GA
Rep
3H
##17
pay
attit
sarc
bov
##retion
LA
autoimmun
##osity
##axis
repeat
##atid
indirect
separation
fore
spectrometry
input
draw
enhancement
CK
luc
##oplast
##rab
beginning
##entially
settings
SF
quiet
Under
##ulum
surfaces
demand
nitrogen
ready
characterize
##enia
##rade
substance
NS
barrier
transduc
az
hu
derivatives
##atinine
##illance
##olecular
ELISA
disappear
##arin
##oming
##pass
GH
##atically
##oblast
albumin
tuberculosis
pelv
morphological
##15
characterization
stimulus
controlling
disability
bring
congenital
##lated
hypoth
implantation
coefficient
melanoma
##izations
wrong
##iveness
tyrosine
##acin
reproductive
##rose
dy
pil
lipoprotein
regulate
fibr
extracts
##unk
visits
itself
ulcer
##ilities
thi
charge
returned
adop
dad
rod
situation
##tial
analges
##rotein
equivalent
##ees
arteries
axis
ms
organisms
display
##ogram
NK
validity
##ostasis
tur
Differ
mach
##gar
##phyl
sig
pump
bowel
electroc
drop
neither
causing
##airs
steroid
spectra
reliability
efforts
tube
abuse
brought
EB
##point
Each
correlations
chapter
determining
amplitude
##ferase
substrates
ethn
##amb
##otypic
cycles
##IT
##omycin
users
nasal
microm
chick
reflect
##itiz
vector
##rand
##iding
mammalian
upreg
##illin
actions
cDNA
Intern
integrated
infectious
hr
salt
simultaneously
##ensin
anesthesia
##uria
managed
VEGF
Hb
longitudinal
induces
rehabilitation
##cephal
##iciently
assessing
##iar
moving
conform
Plas
filled
book
polymorphism
##Is
arthritis
rac
stenosis
driven
##opo
gaze
reasons
##ichia
##oic
ast
China
##tible
crystall
aging
asc
react
##ignificant
Non
substit
ket
ID
contracep
concer
##uman
expans
mine
##asure
Br
##OM
box
advantage
##mentation
considerable
lowest
Esc
##Rs
drinking
disp
##urity
law
##tition
probability
##OX
Dise
Dis
text
issue
pure
viruses
dual
mell
demonstrates
##haps
##osens
dip
numerous
##acent
##ocon
frequencies
##GE
immediate
European
rub
##versely
feature
##ophosph
bodies
conversion
imag
fif
##bre
##urance
##ience
anth
BD
##ptomatic
phyl
##atif
Neu
granul
entry
interleukin
micrograms
##selves
duct
compart
aug
emission
##oag
agonist
edge
##erated
retrospectively
kinetics
##ifying
##queous
mas
yeast
##uly
involves
legs
lum
withd
##IA
##enes
Assess
referred
Mic
atheroscler
##eling
clean
T1
Many
##ensus
##ocarcinoma
participate
NT
hazard
inher
CD8
wood
inters
##otropic
junction
transformation
variant
guy
proved
Eng
surviv
pharmacokine
##estic
##rect
urban
centr
esc
standardized
##IR
Thirty
estrogen
sometimes
dram
Phys
instrument
ethyl
atom
dementia
##ocytic
##oud
giving
shorter
LD
Nor
antimicrobial
investigations
Mon
##ny
diast
Hep
##inted
je
monitored
CD3
veh
prophyl
infant
dispers
mineral
coding
##tage
please
extremely
policy
bias
screen
gut
retention
December
fever
talking
pairs
electrical
manip
concomit
chance
reporting
schizophrenia
ages
resear
##forms
dehydro
city
##umor
lar
theoretical
##entific
sections
implicated
particle
Out
limitations
perhaps
express
varying
##UN
##BD
My
depending
nodes
##olin
subjected
influenza
experiences
Serum
##ilarly
spine
femoral
##achment
dopamine
RP
round
blocked
building
multic
mim
volunteers
ways
SM
creatinine
NC
covered
identifying
Incre
fet
restricted
grown
circulating
encoun
##une
cam
perfect
##ontal
##rinsic
suddenly
##weight
##acet
carotid
subsequently
sac
GAB
modulation
hurt
thereby
##uous
delta
fixation
##B1
watched
buff
mir
Rh
##term
twenty
incubation
##ilib
immunore
born
scat
##icking
boys
GF
fields
methylation
thro
meeting
Cal
##otrans
##vas
##atigue
centers
##udes
uncertain
aqueous
##atum
wo
constructed
kappa
availability
bovine
##ocomp
Escher
excluded
mellitus
excit
trigg
echocardi
microbial
composed
sets
lens
cyst
transpor
stared
Multi
According
Escherichia
bypass
articles
##aphyl
fab
version
glomer
pathogen
depressive
sitting
attenuated
coc
##son
realized
AMP
reading
rural
gli
##uit
initially
assembly
tree
##pler
mag
din
consisting
uncom
qualitative
tax
hypoxia
professional
tasks
mature
NMR
transcript
##itor
perception
ps
king
hes
fist
pathophys
##auti
DE
prevented
fractions
pull
options
##illus
##amous
ju
histopath
accoun
PH
##arth
vamp
wet
vessel
##itol
##alities
author
er
glycop
##ounced
Other
concerning
SH
##ads
vide
cul
recovered
murine
requirements
##ote
Surg
pharmacological
rose
assisted
steady
mixture
DP
Aust
immunosupp
Blood
absolute
untreated
phenyl
fru
today
##igar
##ror
viability
##edic
episodes
bearing
acting
evaluating
tob
##ochrome
##abilities
generate
fluorescent
mmHg
sensor
increasingly
hex
stret
guess
##ping
autoimmune
##acco
##allow
parameter
correction
depends
waste
##ohyd
delivered
gradient
extension
fragments
operating
simulation
regulating
##TA
caught
lau
forming
candidate
advantages
AV
cho
medial
biosynt
Inf
deal
Research
composite
##angi
cartil
overl
isolation
parts
##omers
distributed
ventilation
##exp
throat
catalytic
eligible
cytotoxic
##roll
##aires
fibroblasts
occlusion
##oul
##omical
project
limits
holding
##ghed
TE
allel
puls
closer
##essions
phenomenon
veg
##uments
aid
dang
##issions
shut
##iologic
deletion
loop
compet
member
phases
practical
IS
rar
adjacent
##lin
utilization
reactivity
ta
trim
negatively
##aryngeal
dimin
zone
feasibility
applic
malignancy
define
separated
##NC
protect
##AMP
polymorphisms
##ecal
diastolic
inoc
CNS
dend
gap
socio
div
##down
conduct
endoscopic
drive
modeling
coupling
drain
##chers
##enop
speak
epithelium
variance
continue
expansion
feedback
office
bis
phospholip
obstruction
vision
stiff
counts
cond
cool
##oresis
GABA
Qu
reduces
Five
bile
valuable
segments
surveillance
##eed
relapse
conv
brid
effort
usual
##ighting
Can
diver
die
RF
##biqu
created
improvements
existence
tip
interviews
mmol
undert
##met
definition
embryos
adjuvant
Evalu
sick
##ptive
##vis
##uation
gun
saliv
beam
Sal
million
##ibration
software
department
TT
categories
comput
curves
insertion
PO
##liminary
simulations
advances
##anged
##umbar
libr
##ulmonary
##K1
immunity
cham
attributed
MB
arri
predominantly
ligands
##IF
parad
##pat
stratif
overexpression
killed
Ma
jump
CG
country
##accharide
residents
##steine
Studies
facial
clot
peroxid
##oidal
Such
laparoscopic
evoked
worldwide
recruit
penet
zinc
##23
African
discre
##erves
traits
offered
Ang
##eps
##era
casp
##water
scientific
arti
hybridization
recipients
faster
##areness
##ighb
fibrin
leaves
classes
utility
##uitary
##ols
arg
remission
##iod
bag
##ulus
##iant
##ausal
metall
donors
##naires
exactly
ROS
##ractive
nico
cigar
baby
looks
Second
elevation
Human
##hyde
apoptotic
##ires
spot
shot
differentiated
af
##inson
##itten
##oglobulin
multid
temperatures
##iltration
pretty
anomal
synth
NAD
synaptic
hospitalization
powerful
progen
errors
loading
##irst
inhal
movements
##Ds
sought
careg
Fif
##igen
##vation
guided
##chron
pathogens
fabric
sharp
hepar
accep
##iff
fro
myc
tumours
thank
Sw
##omb
rating
cyclic
Mg
pigs
##dehyde
hypothesized
Op
rheum
heterogeneity
susceptible
##IL
motif
inferior
##ocytosis
commercial
utilized
##plete
option
injections
confer
spi
fatigue
interc
eating
##atever
##enetic
proven
##flamm
stere
aggregation
##heless
##isition
dorsal
inner
pow
cavity
interface
##lyce
deficits
cataly
ubiqu
##ilization
App
opioid
quin
tone
##ulative
detectable
attempt
leaving
##ushing
chair
tong
tears
willing
idi
excretion
##rates
fewer
deposition
predictor
newborn
scar
govern
investigators
dialysis
breathing
guide
Not
unus
laughed
##enchymal
compliance
grin
dehydrogen
Prim
ign
##cious
##tivated
stent
Min
SV
subcutaneous
embryonic
emphas
neighb
substitution
##rance
nur
smokers
immunod
##oplasty
##isons
themselves
allowing
HDL
aggressive
identi
discontin
biops
clusters
sulfate
interact
##order
hemorrhage
typically
biology
asymptomatic
angiography
##21
Following
flav
##oxic
locus
##iaz
##omat
##HO
whatever
chains
rabbit
##ously
Austral
retrie
piec
##oli
putative
greatly
placement
uniform
supplementation
FT
##ky
gall
coag
restriction
##sh
participant
concomitant
hydroxyl
##ians
##cription
##otensin
nonc
##athione
##osome
##like
bott
barriers
Disease
distress
cartilage
connection
mucosa
TH
##LT
HBV
lacking
decreasing
##zen
accom
grand
empt
habit
resting
que
road
##yte
bp
fair
##rip
communities
Children
pituitary
scales
E2
gro
##zyme
pron
implants
emerging
sple
tobacco
pall
veget
##heimer
Medic
vic
adrenal
trained
glycoprotein
##veolar
meant
epilepsy
remark
occas
##uz
rig
CN
##het
insight
arrest
##mal
##nia
contamin
cirrh
OA
pock
consists
##ractory
Alz
##amental
fr
adaptation
iod
##adiol
##opathic
surrounding
decomp
bip
Eight
squamous
##matic
schem
strom
protocols
TM
attrib
##avirus
hemoglobin
nutritional
acceptable
##oxin
dream
tele
fun
pelvic
allergic
ICU
compens
unable
challenging
##ensitivity
dropped
mobility
bird
methodology
potentials
educational
remod
align
cleavage
##ply
shared
acquisition
Recently
cytoplasmic
income
Phase
##oyl
contents
##onate
##ilibrium
Alzheimer
##ishing
preparations
##27
monitor
providers
Women
synthase
nuclei
film
##ato
predicting
discovery
South
##wh
integration
lymphocyte
AK
##lysis
glutamate
COPD
anc
reperfusion
whispered
AIDS
opening
immob
amyloid
##38
##onas
antid
thrombosis
##affold
##ota
introduction
gangl
ocular
layers
assessments
##LD
pretreatment
couple
examinations
phosphatase
apparently
insights
si
DF
indices
##ett
spent
ga
mening
glanced
watch
claim
underg
mitochondria
sweet
adjustment
##oglyc
cAMP
unch
##psis
displac
Type
sessions
cast
tongue
##assium
flat
validation
professionals
retic
##adily
adsorption
##uity
maturation
relaxation
Also
inhibits
square
tin
participated
DD
acetate
happy
stepped
evident
adenocarcinoma
##lish
2D
plane
dL
implemented
##opoie
##ached
##plex
cum
databases
screened
notic
initiated
sand
Total
GS
clinicians
homeostasis
town
translation
reviews
awareness
meaning
subc
Fort
##kle
influences
Bet
vulner
speech
stone
##illation
##going
questionnaires
seconds
sera
formal
osc
focal
mention
##rovers
sister
regardless
watching
##opor
##ritic
actual
correlate
tension
encou
harm
##uty
concerns
estr
yielded
positions
offers
insp
relief
neurode
Index
##mod
emerged
van
pert
##off
HM
##aden
undertaken
##vo
##olid
cytochrome
promoting
##Ns
nitric
array
scaffold
##orescence
interferon
##body
biopsies
toxin
##lip
pathogenic
cytotoxicity
comparative
##mented
changing
##aked
spectral
sepsis
LH
biof
##phrine
prevalent
pilot
##adian
##uses
considering
withdraw
preventing
passed
##vance
##ospor
mood
##po
##uscular
uses
glutathione
ablation
precursor
##EF
vehicle
believed
indicators
IT
determin
intrinsic
##agnetic
transgenic
decided
Prog
AUC
corneal
GA
traumatic
DT
Elect
##EV
Dop
##hea
dehydrogenase
##ada
TLR
Significant
##cy
uterine
orb
survivors
precise
aure
vaginal
camp
##ugg
Ques
##max
RS
electrophoresis
corticoster
##Ms
##ift
complicated
BA
BR
analytical
inducing
lumbar
regeneration
spleen
differed
nutrition
carcinomas
adaptive
um
coverage
preced
TS
hung
gray
decisions
seizures
##wing
drink
##aceu
loci
trends
orientation
Bas
ongoing
##ulties
consensus
##ensis
tooth
thoracic
caspase
##stand
takes
voltage
##asty
etiology
perman
lep
reversed
##ubated
copper
share
tib
Meth
exclus
residue
quar
denti
fundamental
genotypes
aort
bath
carbohyd
rarely
##elihood
SU
virt
forced
Day
hypothal
mucosal
Rel
shoulders
##agement
TF
cardiomy
opin
angiotensin
potassium
business
promise
gestation
rear
phenotypes
##gi
classical
OP
##ayer
##lege
IU
##GT
international
Germ
ensure
discovered
ultra
malaria
Park
##atidyl
substances
carrying
##gent
false
controvers
Care
acad
aber
Car
seat
##LS
arom
##inating
##idase
##ional
Diagn
contributes
proton
manifestations
absent
neurot
responded
##rod
MM
subunits
money
outer
rupt
deviation
postp
##ohn
Age
mapping
esophageal
gestational
trop
##orted
written
decades
##rosp
EEG
Gu
QT
operated
leaned
supporting
DH
##57
mad
First
driving
shed
##ero
race
refractory
pyl
limiting
estimation
quant
eosin
##ken
weighted
feasible
shit
aureus
dimensions
Forty
scans
modifications
cutaneous
identity
explan
ester
shirt
##elets
sizes
bright
GM
##auc
leak
Resp
stronger
partners
enab
hemodynamic
##BL
##astom
needle
dissection
beauti
likelihood
interpretation
##hern
##unch
heterogeneous
crow
practition
tric
##ypes
##itect
EGFR
##pecific
Det
config
compression
incorporation
NSC
exists
##ony
subjective
accepted
##tisol
researchers
fasting
UC
Man
##70
categor
##ura
##OH
##ameth
Their
##atch
leth
picture
SB
substantially
regimens
transm
Kn
##ozygous
##yster
##aste
ii
##ialysis
##olate
approved
Surve
##fold
preferred
plasmid
unusual
subset
chloride
##estingly
observational
##choline
quad
m2
portion
Cardi
##R1
sul
photo
19
##clinical
structured
lipids
embol
obl
CRP
technical
auditory
##chen
Radi
vital
digital
follows
silver
##pert
lamin
map
anaest
International
##VID
Long
replied
C3
Chronic
exer
thal
##ocular
suffering
Function
vesicles
heparin
permeability
abundance
parental
enzymatic
mast
adenosine
detecting
##titis
serot
intram
Assessment
greatest
environments
relevance
Primary
##opoietic
extens
##ectors
trust
immunoglobulin
nurse
pushed
scream
##mar
corrected
alive
##opol
solvent
reinf
lungs
resolved
hapl
argin
absorb
##urated
nick
##nea
coff
combinations
planned
promin
##OT
opposite
prospectively
sept
##osen
##hemical
##ypical
recruitment
##40
supports
comfort
grabbed
rabbits
involve
Control
beside
calculations
##rovir
pent
trem
precip
perspective
confl
studying
nM
beautiful
circulation
walls
former
ect
frontal
artificial
##ometer
##eficiency
testosterone
annual
##key
lactate
Question
##load
terr
missing
##ora
tolerated
##gal
macrophage
representative
##heses
consult
##irc
attitudes
plaque
pp
shad
supply
kinetic
##ocortic
Qual
anticoag
private
leaf
##uron
difficulties
timing
comprom
##itated
searched
##istent
simply
##anic
OC
Japanese
preliminary
##pathetic
downstream
trache
performing
chond
noticed
resource
outpatient
flap
vaccines
trees
exogenous
closure
degeneration
##romy
##ascul
deter
mist
lives
##elve
nice
simulated
##orthern
##pread
Vis
##idespread
Vari
LP
##iation
Clin
hon
splic
##NK
quantum
comorbid
TG
cit
supposed
stimulating
datas
##bing
normally
similarity
ho
##rist
damn
ECG
amplification
##empor
##esterone
gather
truth
peritoneal
Hz
##opy
represented
##platin
youre
abol
Mal
Early
bor
quantified
##alling
namely
saying
online
corner
complexity
hypertensive
##alk
empir
##riched
fight
visible
platform
##acial
##break
ultim
##ino
exception
##ograft
traff
fo
edema
transfusion
anatomical
dosage
consistently
hormones
convers
strict
##fe
immunohistochemistry
##ibular
offs
opportunity
respondents
earth
maintaining
##rotic
dex
##kt
rid
Current
##22
##co
largest
##uled
COVID
Soci
brown
forces
##ensities
##ras
ath
favorable
##urable
autophag
##ionic
##nis
Random
aver
depletion
##enari
Mn
constitu
offic
##vity
worked
virul
pronounced
dihydro
IM
screw
hypers
antagonists
panel
MV
rejection
##anges
GI
triglycer
mono
percutaneous
transcripts
interference
##actory
travel
hippocampus
completion
subtypes
indications
biosynthesis
swallow
pin
jus
##onuclear
Interestingly
tonight
technologies
##DP
##rich
fungal
##iasis
improves
inhibiting
widespread
route
neutrophil
##apping
##estive
Exp
street
downreg
##90
labeling
NE
electrode
diffuse
clones
GR
##agg
Doppler
enriched
Cox
##otides
excision
addressed
##CAT
##ifer
Up
agreed
grafts
create
##acerb
nose
protease
accurately
June
brom
Acute
locations
resc
shaped
semi
preterm
CX
volumes
bic
sar
polys
construct
alleles
##metry
representing
answered
oct
wear
aware
carefully
##Fs
chamber
hun
##requ
video
alex
##ozo
##rospective
##mol
unilateral
##ocked
suicide
Si
inactivation
##RD
##icients
unp
##ocellular
concurrent
Intra
##ophilic
##ediatric
bull
HPLC
##ilized
##illing
##otherap
thous
weekly
diagnoses
psychos
coated
principal
History
responsive
AG
Wor
infiltration
bud
unchanged
capillary
RV
anastom
carriers
##ographs
##opl
partner
##orce
evolutionary
##odil
thoughts
modern
hind
14
May
##eless
Pr
loved
waist
session
##otoxin
cytometry
##III
art
rough
deform
FI
quantify
eat
kitchen
teaching
Fl
extend
stained
resemb
parasite
yell
academic
epidemiological
pointed
ATPase
determinants
##iples
hippocampal
exacerb
##rocyte
interesting
##theless
reaching
Ni
Hem
numer
##lem
microbi
rotation
youth
rain
cortisol
intes
cation
##ordance
rheumat
translocation
Inv
films
scenari
##phone
coefficients
pren
cumulative
##sA
summary
consequence
Mo
##uncture
##flammatory
##titute
xen
##ON
synerg
Red
##oking
##related
Parkinson
Plasma
instability
dosing
elucidate
attachment
##aughter
lived
endocrine
efficiently
Multiple
sclerosis
depos
ze
##racted
##28
##iae
obst
anemia
thats
pg
works
##chlor
##vents
intell
sham
coffee
##rastruct
##arged
adolescent
NI
##metric
station
frame
architect
##outher
wasnt
farm
##ectable
enable
hydrolysis
reflex
UK
chromatin
withdrawal
##uctase
hors
##itic
postm
standards
chosen
cirrhosis
rectal
difficulty
smoke
Coll
demonstrating
tor
elimination
prescribed
pocket
##tiary
##aled
knees
##iplinary
##ivariate
intraoperative
sea
regulates
phyt
antit
embryo
##isk
blocks
##lit
diets
ammon
Test
confound
deterior
situations
##N1
seeing
figure
jour
platelets
##pring
##usive
##bl
gives
meal
trou
##outhern
NSCLC
infr
##iltr
homogene
empty
colony
indicator
outbreak
integrity
entered
yr
premature
Anti
presum
##joy
##illed
postn
principles
##izumab
##hene
silence
TI
precision
patch
immunodeficiency
permanent
familiar
occupational
aneurysm
hol
optic
portal
##asone
household
efflu
Statis
agonists
pylori
beg
Ul
##adequ
Ten
equilibrium
atherosclerosis
##ference
comparisons
Anal
##inea
blast
adipose
arginine
##CG
##acting
quantification
registered
Low
Oct
season
##amus
interpre
##ani
##eds
sheep
elicited
##vasive
##assay
turning
yields
Ext
oscill
Gy
##band
nerves
horiz
##acryl
knowing
##acillus
cup
wonder
discrimination
##elle
unst
Pres
operations
hang
overcome
merc
EA
binds
story
discussion
malignancies
lifest
progesterone
interru
Its
anticip
P4
10
##itization
comprised
##phthal
expressions
obstructive
apprec
##ocks
shell
library
##ufact
dimethyl
leuc
careful
incom
##ectives
distant
Comb
description
embed
otherwise
enroll
recall
conserv
implanted
##BM
##omonas
consideration
incident
split
##atile
##ardia
object
##gia
intracranial
cystic
##oL
hydrophobic
gonad
destr
microscopic
##ositive
##inephrine
CAD
fu
stream
modulate
English
fluct
MG
filt
Au
echo
om
paradig
gent
##ogether
grap
morphine
readily
lam
PKC
Questionnaire
March
biofil
rated
##aven
tetra
##opes
drawn
filtration
equation
spoke
antip
apart
epig
##titial
##embrane
##ains
reveals
##flow
remodeling
correlates
Ti
mA
##sin
metabolite
respective
##ereb
##romes
WT
##razil
details
##eded
CRC
waves
optimized
flux
##EA
dl
carry
negl
##tors
enjoy
acts
encoded
##ulose
depri
dress
##rowth
miRNAs
abundant
electric
##atible
##eted
Organ
##mg
encephal
##quin
evid
forest
wavel
Class
##osts
vill
selectively
conscious
threatening
##iers
##work
##lot
##iration
dich
sugar
##ucts
rhythm
##azine
##fish
probes
##otes
prominent
dyst
Arg
enl
promoted
jaw
sort
spermat
surgeons
galact
phylogenetic
phenotypic
transformed
##NOS
distributions
##antic
cisplatin
##oxygen
biomarker
contamination
lifted
##ologist
isot
EF
indication
carrier
##ulates
##ober
advance
##rene
wearing
gar
##elta
plans
formulation
Sing
angiogenesis
enhancing
epidermal
differentially
happen
nic
##heres
##abin
fruit
doctor
anyway
nonin
##idin
carboxyl
reductions
incorporated
jam
##axel
incubated
alveolar
##artum
oxidase
somatic
Hear
tryp
Use
##LN
IN
eventually
amel
agree
atypical
##24
thanks
synchron
alkaline
postoperatively
selectivity
preference
loaded
phosphatidyl
assumed
stran
tertiary
##osystem
Experim
fash
seizure
motility
##UT
Brazil
##rex
bottom
mobile
western
##ender
apo
##mark
reversible
Es
regulator
modalities
Between
##tiviral
intim
decade
infiltr
focusing
Drug
##ortions
acuity
beneath
##Ls
homologous
blocking
canal
activator
topical
fran
complain
manufact
connected
investigator
lac
PSA
crack
##iary
##amily
##ilic
candidates
Saf
capt
##60
cloned
##amycin
experimentally
generalized
phag
##apt
##acterial
produces
##GS
##keletal
SW
capture
spir
monol
fashion
ACT
proportional
##iol
##irub
computational
##enopausal
fasc
headache
sounds
subgroups
##1A
conformation
chor
wra
considerably
O2
silent
Center
pup
##atics
belief
##nat
vertical
IA
##PC
modes
opinion
##teg
EGF
##plasty
becoming
clamp
transduction
##ods
estradiol
sad
##lands
##ME
subtype
rock
##ylation
viable
neurodegen
adapted
ile
PN
mu
##fluorescence
diminished
secreted
glauc
##openia
##3K
univers
##omotor
##tery
border
##yd
worry
Arab
VT
cyclo
accounted
North
chromosomal
##CAM
##cine
Li
fur
##peritoneal
Taken
genus
##ococcal
undergone
silic
loud
Pa
ice
##omized
width
proliferative
complementary
encountered
attached
##ena
postnatal
disruption
pregnancies
##iction
overweight
##80
##raid
guidance
##omorph
Fifty
Sym
inadequ
##PAR
osteopor
HE
activating
science
endometrial
randomised
intestine
##dy
fourth
Conc
##armac
disappeared
##transferase
HER
serotonin
Id
moder
cran
PEG
intense
##my
stic
ging
emotion
IgE
engineering
microscop
Pe
picked
deficit
##orous
Ox
category
##epress
staring
cant
ideal
organism
LS
##esh
critically
sequential
replic
stat
##isciplinary
echocardiography
psychosocial
protected
facilities
##osus
linkage
distinguish
ultrason
##rior
fatal
served
chromosomes
transfected
##asp
##ograms
##ossible
##agland
##atib
##rof
offspring
##P1
guys
Society
histor
tended
hormonal
larv
contributed
HO
passive
infrared
##icillin
drainage
##encephal
NMD
remind
NR
overview
16
##athyroid
##30
neutrophils
##pes
hed
sle
bol
played
sympathetic
aqu
tabl
equip
##plastic
##ophila
lifestyle
signalling
contributing
aorta
##lycemia
##lie
prescription
carbohydrate
##roduce
attend
##ariable
sky
CO2
##ker
##ocated
stimulate
stiffness
prophylaxis
recording
MHC
atrophy
shifted
summer
microc
learn
##BG
COX
##rus
##lings
tach
strept
machine
counsel
barely
mesenchymal
warrant
##rox
##ukary
pathologic
highlights
wit
##tub
##een
##arcoma
dissem
##ques
wors
##lastic
preventive
histologic
##des
Africa
wed
##oarth
blockade
##helial
unexp
July
dye
fibrillation
##ips
excessive
activate
pathophysiology
radiographic
##OF
mutagen
property
iv
##29
frozen
learned
cha
Given
Association
Val
immunohistochemical
##lets
upd
game
bands
SG
##engt
communic
genetically
ankle
projection
histone
##Bs
##gl
Admin
reflected
exh
injured
##enin
##mitt
lowered
Evaluation
##plicit
Apr
contral
SNPs
programme
##light
##omeric
equally
WHO
nutrient
noc
casc
exclusion
au
Form
##oler
##bow
dism
##olone
##itely
perceptions
para
glycosyl
##BA
##ril
cure
innov
BAL
##standing
nicotine
##rary
tear
cytoplasm
harb
yourself
##ptic
lord
##electric
hus
sight
IQ
depressed
nmol
automated
##eled
pharmaceu
Diab
suit
wish
retained
foods
conven
##rectomy
stuff
RCT
unless
sold
##avail
##odialysis
systematically
##rangement
##ridine
ranges
hyster
roots
mediate
sph
tendon
microar
scattering
sir
promotes
##uate
##DI
overexp
cheek
##hex
impacts
cyan
##odon
Due
##26
biliary
fertil
combining
reductase
##affected
gradually
severely
##oxacin
Within
prove
##abine
zero
##olf
sin
eggs
##riage
glomerular
propag
lith
jer
adjusting
lobe
victim
vascul
bonds
helpful
abolished
cov
birds
emphasis
superoxide
cocaine
vacu
sighed
predisp
##economic
centre
##aemic
missed
exhibits
##lutin
STAT
ionic
industry
surgeon
##eptides
sensing
afraid
##carb
clothes
dendritic
spor
glands
envelop
April
##ophyl
##amethasone
pressures
commit
##estim
##CS
stromal
duod
##ials
T3
rice
pancreas
dimer
##phosphate
##actin
coagulation
exon
recognize
doubt
##orbent
##PR
##abs
phosphor
##ishes
elastic
Any
gh
glycer
thirty
Pseud
IgA
Safety
##rating
Ret
huge
Pb
esophag
unrelated
surveys
processed
idiopathic
cust
BMD
##asm
satisfactory
examining
manage
reporter
tag
##ocin
##rons
SLE
##rage
unaffected
catch
sediment
antidepress
trait
unstable
pressed
lie
becomes
clarify
Akt
requirement
##rugged
ash
comes
attempts
span
enables
##As
keeping
algorithms
##apsed
conce
cohorts
posts
##PH
CVD
##olol
rolled
seeking
isoforms
compartment
templ
muscular
IgM
##raine
cultural
##RACT
participating
ADP
practitioners
recombination
interstitial
killing
##ploid
Changes
TK
Cyt
eukary
keratin
VAS
Investig
encourag
competitive
##ynaptic
CKD
Fact
paus
constrain
opportunities
goals
##ophen
waited
MAPK
##atibility
##athe
statistics
Ele
hospitalized
##eper
Pub
beat
hepatocytes
elong
steroids
dust
##essation
inducible
grew
##roplasty
couldnt
ethnic
Expression
branch
termin
differentiate
wife
rule
playing
##ius
DO
neurom
##oustic
paired
diarr
manual
massive
derivative
Multiv
mitral
modulated
Department
worth
Baseline
hematopoietic
Kore
##ara
lethal
bipolar
hypertrophy
androgen
##ented
lowering
personality
kinases
##osures
##iable
NMDA
potency
isolate
pet
Evidence
yellow
##TR
##imb
Num
Aut
contralateral
anch
autophagy
##lusions
wavelength
cats
coordination
Protein
university
industrial
##rench
rheumatoid
declined
taste
##riction
prenatal
Ital
##obacterium
suppressor
cysteine
irre
Never
##orec
atm
cigarette
ADHD
Ha
##irubin
##plan
reag
##ashed
mT
rupture
dissociation
##tt
apical
violence
Staphyl
serine
perturb
##engthen
telling
P2
##F1
ventral
luck
cattle
lifetime
ACE
innate
locally
responsiveness
broken
##mm
metals
##enn
burst
##ipping
spp
copy
oocytes
hous
cows
##rile
##Vs
defense
tau
##ofib
buffer
Pain
obviously
scheme
built
##linear
named
swelling
##cepts
investigating
hypog
ult
fitness
tall
etc
meat
Sevent
##astatin
referral
john
psori
modality
Hyp
##uched
FF
##icks
kissed
##roid
Heart
SEM
##asic
ABST
acidic
Quality
exclusively
ML
gait
explo
urea
Myc
Fem
##hesize
ABSTRACT
tot
##xy
Psych
##ails
anger
##uing
transporter
instruments
rank
##erent
enrollment
prostagland
restored
embedded
partly
conformational
tens
##wards
radial
alteration
giant
##andem
controversial
##bil
tendency
monocytes
latency
mount
##oemb
MH
vampire
retard
Trial
Similar
Sept
pharmacokinetic
transferred
##rows
L1
naturally
interfere
Measure
##ositol
chemistry
##idity
epidemic
finished
PU
WOR
autologous
##odal
lying
##ysts
allergy
secretory
dramatically
##omed
objectives
##ball
HL
cessation
##oplasmic
Herein
creat
radiological
##roviral
GSH
MF
intended
##aned
trace
redox
Coch
null
stored
escape
glucocortic
alle
##2A
syndromes
optimization
chicken
histology
insufficient
##ontrolled
shrugged
Mut
filter
Nevertheless
replaced
##azol
AML
PTSD
##neys
Institute
turnover
##aments
##EN
pick
bulk
microtub
matching
LM
##100
examples
##aved
jul
Flu
episode
axial
financ
##abolic
applying
perioperative
##otoxicity
wk
lute
purposes
gp
rect
Median
Survey
aspect
wondered
guard
evening
glaucoma
##ito
sib
virulence
fertility
World
uncommon
switch
apply
AH
Bcl
bund
##izz
disturbances
##osan
displacement
##oderm
desk
surprised
superficial
cooper
hey
Aug
surfact
dermat
grass
myeloid
leptin
popular
flexible
##inase
sustain
empirical
WORDS
caregivers
accelerated
ACh
scal
SOD
orally
##vision
knows
##ider
firm
##iative
mentioned
listen
##CATED
cass
TRUN
phosphorylated
TRUNCATED
construction
enrich
immunization
conversation
She
neuron
##otyping
Stre
antiviral
helped
VI
saturation
##utrition
schools
afford
amp
endothelium
wrist
cement
##avir
##ael
somat
GTP
pulling
13
##bec
larvae
And
attractive
note
immunological
guinea
security
##imetry
mammary
adduc
##asts
miRNA
Hig
static
nonlinear
upregulated
horses
##PT
clinics
expanded
daughter
biod
##CL
gram
ordered
PAH
##tian
Seven
ears
pooled
ligament
##rays
perm
triggered
equipment
Individual
##vit
shifts
##aker
faces
Stand
VA
unexpected
slid
aerobic
##nR
September
##utely
Staphylococcus
##erge
excitation
mos
accompl
##Med
kb
catar
papers
append
socioeconomic
anaer
##points
exposures
##EL
curr
handed
##agic
neuros
hepatocellular
une
Salmon
lineage
##ulsion
trap
extensively
analogue
numerical
stratified
peric
cours
deoxy
homolog
climate
bones
concerned
EG
ureth
BS
Sixty
##inflammatory
rRNA
DN
##nex
##imus
anticancer
smell
effector
calm
##opulmonary
atmosp
coating
code
ART
microorgan
proce
##ien
##la
vectors
ventricle
October
achieving
music
BT
chron
Leu
Gram
caud
flight
##thromb
piece
##tures
plasticity
##cale
##CP
Develop
predictions
None
shear
nano
##omics
Initi
teac
adopted
Similarly
hole
river
trigger
##fts
LR
traject
conservative
##ala
Then
anatomy
##MO
##opsis
##H2
##ares
##herent
##eleton
applicable
vaccin
student
verified
specimen
##da
hemisp
excited
graph
insufficiency
separately
medull
stup
digestion
hid
DL
Program
aromatic
BB
##igation
utilizing
ahead
lady
concepts
darkness
staging
Administration
scoring
neo
recover
inadequate
profound
suffered
entit
##esare
comprising
##tism
tandem
grain
Risk
MDA
wheat
directions
##enta
##omestic
##istr
ry
##oradi
catech
##ysiological
hearts
neuropathy
architecture
neurologic
##ostatic
nodules
charged
##tidine
supplemented
bill
exhaus
Pt
destro
OCT
##how
linking
preserved
##oblastoma
scored
##uber
weights
Single
coinc
mum
neonates
dw
PGE
usefulness
aspirin
##esophageal
balloon
##erating
liked
##ylated
besides
dispar
ecological
ejection
legal
T4
judg
master
##ulos
Time
##ulator
ASD
inactive
Comparison
A1
##emographic
mononuclear
##ierarch
notice
Dros
biomass
Salmonella
descriptive
anthrop
Increased
dox
Ka
18
familial
##oarthritis
##them
homology
hyperplasia
conduction
headed
##acing
RNAs
tracking
incomplete
fluctu
retina
Pers
mediators
routin
financial
##aded
usage
circuit
atoms
shou
division
##py
CMV
discusses
explanation
##iph
circular
los
##ECT
paradigm
similarly
Impro
crossed
party
government
##esium
##ymore
wounds
diarrhea
hypersensitivity
##inting
foreign
doctors
police
##esarean
Chem
SDS
anymore
ophthal
abscess
##opolys
extreme
inverse
abilities
tiny
GD
##artate
focuses
##bling
sen
corticosteroids
##icious
electrodes
##uclear
TN
India
Gene
recordings
sides
soy
lasting
substituted
emergence
circumst
bra
throw
RB
currents
swim
wake
DI
##fron
##aced
salivary
##omatous
##iger
instruction
C57
throughput
##ropathy
forget
##lear
marine
##mes
enhances
neuropsych
##ochrom
periodontal
attempted
adrenergic
remarkable
SNP
cues
rhin
##urgical
genomes
policies
##ognitive
##ergies
unw
perin
immunoreactivity
lup
fistula
BL
##inyl
TD
##va
histamine
isch
contributions
##ffe
tunnel
ald
incision
##anish
Drosophila
news
brach
formula
thigh
eosinophil
ubiquitin
##amps
immunosuppressive
dense
tubular
veins
inh
Strept
Cochrane
PubMed
mRNAs
totally
Inhib
##enger
evaluations
blank
##ocking
irradiated
analgesia
VS
Subsequ
##ricult
testic
reflux
##oric
Level
osteoporosis
##iton
inpatient
##anal
##tized
validate
amplified
chi
Gal
continuously
winter
clock
amph
insurance
##echanical
So
nond
serial
Asian
cysts
colitis
kidneys
elective
pancreatitis
raw
weap
cot
paid
joints
##ortical
chin
preservation
##accharides
##ugin
Beh
crop
pharmacokinetics
Male
abnormality
fate
##bru
##ethylene
mann
ham
observe
alanine
intermitt
translational
competition
configuration
trouble
vulnerable
dinner
General
bridge
physiology
market
polypeptide
shel
##3A
gained
FSH
anomalies
subm
VL
filling
craz
##ographical
transmembrane
sulph
schedule
functionally
Tri
antitumor
connectivity
##apses
USA
weakness
papill
vertebral
cough
Sam
##onom
surprise
horse
Randomized
##olve
##eks
sounded
##ylate
Surgical
##zer
##ellite
endpoint
minimally
##orecept
domestic
La
cong
diffraction
Life
select
##utable
##CD
elucidated
MSCs
stupid
locked
lose
examines
##keys
squee
atomic
##inn
Hence
mathem
user
inserted
##ogenicity
strugg
falling
constants
speaking
ger
Ki
bedroom
FS
calculate
poison
rum
porcine
destruction
His
##K2
lic
peroxidase
heavi
##aceae
poli
##feeding
##HS
desire
married
strange
##rogenic
##elles
Pharmac
##itized
P450
modest
wrapped
##opa
Depression
match
neurotrans
sett
##ometh
##onn
##orp
transmitted
lands
mc
##jun
##raphy
accident
relie
##otoxic
##letes
##heric
leukocyte
pore
institutional
##ycline
Nin
optimum
upstream
##iciencies
Asp
transp
correctly
dar
expert
##tified
designated
##eptive
##iagn
rising
survived
placental
##ipine
somehow
##iliary
peer
verbal
remembered
wash
##recip
##patients
ureter
##olarization
##ios
drew
ALT
blinded
worst
Pregn
ultimately
orders
Ram
thorough
sucrose
mixtures
revision
visc
ineff
##gence
Scre
Australia
continues
wants
ND
gross
Supp
releasing
contaminated
dexamethasone
spontaneously
##ogeneic
##ettes
thresholds
handle
##ondition
FP
##O3
comorbidities
briefly
causal
Glu
softly
Higher
##entan
alkal
TBI
tes
peaks
harv
Bay
##BI
##aminergic
drag
ars
objects
blotting
fle
erythem
##untary
sna
trunk
##Gs
falls
Lys
save
moderately
amn
aspiration
calculation
##54
follicular
influencing
anesthe
Self
Additional
NPs
postpartum
##factory
tibial
touched
##adic
knockdown
##otransferase
attending
supernat
##pin
thr
palliative
##oprot
##OA
neoplastic
##orrow
##uginosa
hydrog
painful
statin
mammals
##emat
reticulum
maps
realize
migraine
fibroblast
siRNA
##pting
immunofluorescence
##ubicin
##ja
Import
nitr
hips
epigenetic
provision
south
##isingly
courses
tightly
wan
analyzing
microscope
definitive
limbs
##aint
##oblasts
##olym
##istar
chim
##rants
hyperg
nause
##atonin
Functional
precursors
angina
grip
##rolif
ling
analogues
aeruginosa
command
sword
##MRI
FV
nas
gently
Statistical
August
stabilization
surgically
principle
chloro
FR
fulf
coping
##ibilities
##opia
##HL
restoration
Currently
incid
generating
triple
helix
capability
vom
palm
introduce
##bled
Future
kinds
illustrate
diaph
persistence
reward
north
dangerous
IBD
pharmaceutical
feelings
##osarcoma
kids
ended
flo
nation
##azep
stairs
wt
Prior
progenitor
entirely
facility
tomorrow
ppm
outl
##ulant
intention
##arum
##ostomy
##ida
alignment
decay
expon
uncertainty
consistency
##rific
tow
bent
immunotherapy
flexion
##OG
pun
##icul
hence
GL
ecosystem
histopathological
PPAR
iii
##adj
criterion
formulations
quietly
broke
##vastatin
somewhere
contraception
Path
pill
##tium
encaps
##ocyan
cerebellar
Er
##using
Candid
A2
##umbled
ba
##bor
CHD
board
adding
17
rules
parasites
##amil
polymers
PTH
worried
multicenter
Central
college
resin
lev
D1
##atories
dent
osm
##right
novo
promotion
fungi
spar
##essive
web
##after
Wistar
colonic
PCI
crazy
bioavail
Through
contacts
tac
quantitatively
ratings
consumed
anatomic
breeding
catalyzed
shaking
smart
horizontal
thousand
carp
neuropath
dysplasia
lesser
##stein
Surgery
##rost
Cys
extremity
##ontinence
purification
Information
gyn
accumulated
EBV
manipulation
##atosis
pollution
##igg
vasodil
##usted
tea
scr
Score
places
moments
##56
##ugh
counseling
registration
symb
OSA
viscer
NaCl
rings
deterioration
equations
##hep
soul
recipient
lymphoid
lib
cra
##vem
##att
enrichment
coval
interpreted
testicular
mirror
##apor
##rable
hemodialysis
asking
##amines
engagement
vibration
investigational
##plantation
Fc
##oxygenase
##T3
chemicals
angry
hierarch
disturbance
soph
fly
Cro
circadian
D2
biofilm
transc
DSM
TSH
HbA1
bother
##tee
doors
ultrasonography
bilirubin
articular
amelior
##raind
acyl
converted
##urations
ship
enabled
olfactory
frow
cros
remove
revascular
hat
occasion
hams
Medicine
OD
##oxif
terminus
skull
20
HSV
##rian
cyclin
additive
interacting
##asonal
veter
##ss
pleural
purs
antif
##idae
saving
covari
##usp
mandibular
molar
geometry
glad
##antom
imped
microgl
##ynamic
attributable
##ections
##cit
ips
thrombin
microarray
neurodegenerative
recons
##odg
spring
##ionine
xyl
ligation
deprivation
pound
##rink
ment
##orial
behavioural
covering
silica
lupus
##itig
snow
kappaB
grafting
##anes
Therapy
##but
clone
enanti
postmenopausal
noninvasive
##amma
menop
regarded
##ropyl
suffer
leaders
##romycin
subp
aneurysms
##vember
incons
RD
prone
evolved
cognition
Pseudomonas
ERK
bonding
conservation
##cing
arising
Grade
Str
pneumoniae
##ailed
repeti
anaerobic
century
##opsy
FGF
Mac
card
microbiota
##ola
normalized
Swed
summarize
circumstances
##environ
routinely
agricult
distric
##gu
acoustic
scheduled
establishment
##bumin
p38
##rick
responders
murm
resusc
##nRH
##hythmias
vast
##floxacin
cow
arise
FM
vomiting
##ez
##lipid
athletes
remote
rational
microorganisms
##opathological
adul
##omerase
calls
##oides
G1
indeed
##atical
simpl
neoplasms
##bruary
##fluor
intens
GST
Even
trip
describing
corp
anion
telephone
##astric
crude
##antitative
wine
sarcoma
crystals
intermittent
aspartate
fuc
Hisp
dilution
paused
##ends
certainly
nausea
Imp
historical
pand
institutions
##oea
catenin
tired
##endit
##sts
discrep
society
selen
BMP
analgesic
herb
sequenced
##entricular
##orac
compatible
##olving
allevi
Micro
##alt
HU
##ND
magic
Canada
##ey
##ostatin
Bre
State
multim
stool
cytosolic
##inergic
conditioning
margin
ganglion
CAP
sigh
alkyl
Subject
juven
##place
##aboration
##bra
##cip
neurob
##orubicin
message
regulators
ly
Eth
sap
defective
phenomena
slope
FC
GT
uncontrolled
coat
##timal
company
##ka
Screening
Su
husband
mediating
##amed
PI3K
labelled
therapeu
constitute
##irable
oriented
warranted
bif
CoA
specialized
prescrib
##adren
Te
bronchial
representation
threw
axons
Tra
##cher
alcoholic
conjugated
oligonucle
suspension
##oprecip
island
coex
erythrocytes
Delta
cholec
envelope
##rically
mrs
Secondary
exert
conditioned
relatives
acetylcholine
FDG
upregulation
discl
##37
endemic
arthroplasty
conjunction
microenviron
ive
Appro
sampled
##ctive
Finding
capsule
##urnal
##ophore
lysine
tro
##onsequ
emotions
damaged
glial
quantity
##otub
proportions
histologically
Cp
masses
prostaglandin
definitely
##jected
modify
latent
immature
matt
glioma
##lements
canine
shadow
belonging
TCR
H1
losses
##ulsive
Different
destroy
dysp
##hn
pour
##pan
appreci
striking
C2
discrete
catechol
perc
encodes
AE
antibacterial
##uzz
rescue
crowd
##fast
efflux
Severe
psoriasis
S1
anis
nitrate
##uccess
##oblastic
autoanti
##ichael
transplanted
##obacteria
homogeneous
branches
Multivariate
##ortunately
breastfeeding
##atelet
limitation
haemat
##apine
##G2
electroly
polarization
abstr
##ogenes
herpes
##regular
OT
cranial
sized
impossible
##uretic
##akers
gotten
##ryst
aggregates
GnRH
coch
##ricular
lights
tent
push
##terase
##iosis
poorer
Standard
dramatic
assayed
lid
pigment
HSP
scaven
responding
store
preclinical
conclusions
##tivities
epidemiology
inversely
##otherapeutic
Oral
slower
radiographs
Enter
abortion
Char
ROC
childb
Lip
randomization
interested
renin
corn
resident
RI
sacrific
highlighted
disl
Wnt
serop
14C
pleasure
##ano
vig
incontinence
hoped
##ille
mTOR
passage
##enteric
##atation
Where
HIF
beliefs
personnel
February
demands
##orphy
##asia
Short
knockout
##LV
##opulation
##OVA
folding
caffe
##UR
##atine
expendit
desired
transfection
hosts
##yclic
blockers
arrived
##earing
biologic
##what
Diabetes
##onym
submitted
Those
125
sole
##aci
attenuation
bear
##ulty
##opolysaccharide
autonomic
Experiment
administr
pip
modulating
##aturated
lumen
cro
avi
##prin
Specific
minimize
copies
November
plates
elbow
hide
smiling
varies
##bilical
reflects
MIC
avoidance
driver
ambulatory
FEV
Consequ
reflecting
Her
##oir
##aternal
##MV
macular
synergistic
Cent
septic
But
electrocardi
depart
VP
mt
tRNA
cascade
lamb
##elective
brand
ethical
##vive
##lik
contraceptive
constructs
tick
fluids
ow
##onomy
vestib
calibration
perinatal
orbital
unres
facilitated
cataract
tachyc
##ucas
menstr
pseudo
intellig
phantom
SO
curative
##rospinal
hypothalamic
##reading
twin
leakage
Nine
universal
cardiomyopathy
bac
magnesium
satisfied
forgot
Efficacy
Adv
##itting
##aver
storm
photon
trypt
traffic
fetuses
acceptance
eg
##inescence
conductance
graphene
granules
lou
pestic
lag
splicing
##ayers
marginal
astrocytes
bench
raise
pale
deeper
Tc
C1
epiderm
ulcers
##iforn
##flur
##elic
##omegal
inoculated
##oxicity
nucleotides
autosomal
##wan
brady
##zation
monkeys
ovary
bare
checked
segreg
fra
exploration
sensors
##entin
ends
optimize
fecal
Together
irregular
endoscopy
penetration
##omies
HbA1c
Epid
##isis
entity
ingestion
intubation
evidenced
rif
aberrant
hypoxic
nonp
HER2
doll
nav
##osides
approached
arteri
dispersion
discover
droplet
park
reproducibility
Ge
electrochemical
desper
##INE
##retroviral
overlap
conceptual
##inance
Pur
odd
##43
neighbor
C57BL
trunc
##NPs
Serv
anten
Bo
profiling
##ensitive
military
incl
safely
##ortive
Gly
IOP
##65
99
##for
surfactant
ros
ancest
leukocytes
glow
LI
thumb
rend
##itors
##RI
##ographically
turns
prednis
Sequ
imper
compan
Specifically
Bio
##litaxel
tolerability
##rations
antis
##anda
spite
integrin
silencing
##orep
commercially
Bes
demon
Mex
employing
seasonal
ultrastruct
spirit
RG
anaesthesia
complaints
pad
wore
preferences
reasonable
##ita
stain
##thood
survive
killer
##idopsis
forehead
laboratories
developments
prophylactic
Glob
dav
averaged
erad
##organic
perox
inver
inapp
ALL
##rupt
clustering
multidisciplinary
polyc
Physical
visualization
genital
eliminated
asymmetric
PW
HRQ
##rovascular
prosthesis
fragmentation
micron
subd
##night
FU
chuck
RE
ventil
deline
cG
wire
contractions
nom
hypotheses
Tumor
##rological
preceding
myocardium
##unctiv
ionization
##ublic
termed
##anted
visceral
dial
Arabidopsis
bioavailability
##omyel
Dist
reass
##rogens
condens
MK
##ona
unb
##bean
metric
endometri
Germany
stack
antiser
thrombocyt
inherited
##olum
kerat
allogeneic
##herin
ded
NM
sheet
##quito
##perg
ICD
Symptom
SCC
stranded
warning
##oti
plasmin
hidden
melatonin
saliva
Findings
inhaled
provider
##BT
isoform
Positive
sleeping
cellulose
densities
dod
irrevers
faced
determinant
##B2
subsets
categorized
essentially
##ellum
discharged
##arboxyl
##ham
##orge
admissions
16S
mimic
##oplastic
eyeb
honest
methanol
immunosorbent
ipsilateral
Consequently
##ampsia
EV
##ifug
##rangements
ACTH
You
trimester
LF
Oc
somewhat
##riting
Differences
obtaining
thyro
GV
##lam
peroxidation
searching
adulthood
disulf
mism
Rem
aftern
transitions
Identif
caries
lon
undet
##ca
reproducible
Prospective
cu
argue
Food
Northern
gab
osteoarthritis
##zes
automatic
stones
antipsych
knife
proc
##uli
##epit
grace
sweat
##LE
##ls
slipped
prompt
Neither
BF
ethan
Stage
hate
snapped
ease
fuck
##XA
ration
permit
themes
oxidized
radicals
club
Caucas
bite
Abs
colonization
easier
urgent
blin
adsorb
crani
gyr
##uric
reality
camera
##ega
hi
individ
sevent
send
Cy
##advant
seriously
contraind
neuroprot
Body
probable
##raft
Invent
topic
rip
pulses
Hodg
views
angles
Sr
mathematical
##asome
freed
##fa
##umatic
##illa
flash
centres
##mas
##Os
##ocaine
##rible
AST
CYP2
prevents
stayed
##omod
fibres
flexibility
Commun
Raman
##eck
##opress
prison
##enol
circumference
similarities
Kaplan
##sil
transverse
windows
intraocular
explicit
##eries
mitig
pacing
receiver
##azing
slices
##struct
##egrad
cuff
experts
advice
immunoreactive
umbilical
sharing
accessible
anastomosis
##C1
powder
##rea
retrieved
##illi
testis
##hypert
establishing
##rained
titers
waters
bathroom
cru
multivariable
aminotransferase
chris
modif
meg
confined
organized
##oprost
America
virtual
rigid
mV
malform
##likely
template
distances
##uxim
unlike
distinguished
Inventory
gathered
cardiopulmonary
irres
collabor
Del
ole
piv
Hodgkin
##imetric
##eptic
geographic
reserv
conflic
Fas
Part
Twelve
##osidase
##edical
##iest
exec
Candida
thromboemb
dic
##VE
##atology
classic
disadvant
MET
fibrinogen
##friend
wip
mot
##xia
imagine
Molecular
##che
myeloma
##osh
Various
RC
##roliferative
strengthen
maxillary
homozygous
preferentially
Major
bottle
methodological
atherosclerotic
Seventy
shop
##omial
##activation
##ozoa
##orepinephrine
peroxide
gem
contractile
##ager
unlikely
insec
insect
immobilized
reproduction
Genetic
##airy
mechanistic
##formin
afternoon
eukaryotic
NSA
integral
letting
sexually
ethnicity
##inates
titan
fighting
explor
##sk
shall
fluctuations
dying
ambient
##yroidism
carcinogenesis
collect
antiretroviral
##itating
mosquito
revascularization
##ropy
spind
heme
##atinum
##astern
memories
##34
accounts
epidural
##frontal
bub
hen
wel
gate
##GR
landsc
truly
discom
analyse
##pleted
repeats
erythrocyte
mitotic
##aning
QOL
senes
##ault
##ilty
Antib
scenarios
##oned
SCI
##static
##ocr
burning
##aped
Adult
proof
scaffolds
plex
##urk
condom
tachycardia
goes
dressed
challenged
attacks
augmented
subcl
Social
specified
##ashing
expensive
##ecan
suture
##ografts
acup
allograft
##nc
Labor
cerebrospinal
##rague
sag
splen
seeds
jejun
grinned
coherence
##onit
MCF
Organization
southern
##uits
##ACE
cob
GFP
Meier
scin
hygi
##pectives
salv
accid
creating
continuing
lectin
##ronectin
Da
##hetamine
heads
til
hazards
PFS
codon
suspic
pandemic
##uximab
steel
pari
Behavi
##nes
assembled
Vit
##idazole
expectations
apartment
sensation
mutated
##iab
forear
relig
mitogen
panic
T2DM
ASA
Mar
phospholipid
##iley
arach
shunt
Pred
##ighter
constraints
univariate
MRSA
cheeks
habits
##comes
##onazole
##aur
##herical
jumped
Importantly
##irteen
adequately
designs
resected
sports
cholinergic
engineered
##flurane
coast
Bone
ut
apparatus
managing
ULN
gingival
hoping
Surv
##ventricular
parietal
dopaminergic
players
##ictor
iodine
Conversely
##ocompatibility
##ishman
consultation
##ungal
lengths
125I
##fall
##amel
datasets
interviewed
style
physiologic
persisted
ALS
sedation
positivity
cock
##while
dataset
glycogen
Struct
RCTs
switching
##otrophic
suggestion
myosin
##cil
addressing
fifty
##M1
concentrated
choose
##hepatic
inorganic
queen
arrhyth
noradren
cleared
accounting
jess
heavily
sial
Methods
##ception
conflict
##SI
stabilized
phosphorus
grey
photosynt
##ygd
glance
attitude
court
artif
ward
##sover
##affin
##oracic
battle
estimating
##otropin
experiencing
inoculation
transforming
organizations
prefrontal
cadherin
publications
fifth
cand
##ruvate
consuming
appropri
centered
12
hernia
##ev
microenvironment
arrhythmias
links
##ostruct
follicles
##anner
blow
hydrochlor
SK
DV
yl
FL
parathyroid
anesthetic
##omyc
discomfort
##olab
osteoc
French
frowned
##ado
gets
lipopolysaccharide
Emerg
##ivity
##ifornia
Immunohist
clinician
perspectives
ganglia
##ba
##ophan
revealing
listening
calling
presumably
fetus
resuscitation
Response
Log
##house
tam
tris
handling
individually
motifs
biomedical
laughing
Besides
##oconst
morbid
bolus
##exts
htt
##icac
Intervention
muttered
UT
Daw
vocal
mini
firing
surveyed
tran
##O4
##ococci
triglyceride
registry
plaques
song
impairments
truck
ah
HH
##inter
##mitter
##ya
cerevis
##lementing
##lyl
moiety
christ
triglycerides
soils
Prot
partition
##aryn
gaps
oest
##mer
Understanding
arc
twelve
wolf
respiration
##ittle
microp
dext
Nurs
juvenile
strongest
norepinephrine
homogen
trypsin
ectopic
james
Crohn
monthly
##RE
Controlled
##timulation
lithium
cerevisiae
cosm
nephropathy
precipitation
pollut
BW
sensitization
nitro
unre
##ott
amygd
cycling
##unting
##yel
aller
fermentation
##NV
##uloskeletal
shield
SARS
reflection
##tituted
##P3
proinflammatory
intravenously
phage
epitopes
glycine
dried
assistance
zones
##erebral
jake
productivity
##ardial
Renal
placenta
plain
periodic
horn
judged
curric
##MI
LN
Rho
meaningful
talked
reversal
flag
dioxide
blocker
##ighteen
scene
helping
##arium
QoL
##berg
Experimental
biologically
unn
IC50
affective
phe
aside
retrog
##uterine
Prov
diaphrag
considerations
fluoride
programmes
Indian
renew
suggestive
repetitive
chel
##ovial
pulp
dairy
##onyl
monotherapy
heterozygous
Bacillus
allocated
malformations
Effects
##emporal
monocyte
wheel
##unted
15
energies
actively
##atinib
moon
obstetric
owing
Sprague
captured
##otactic
tumorigen
Cardiac
forty
allo
Tai
Dawley
##ovir
perfor
employment
##benz
northern
fMRI
hypotension
glycol
starch
microvascular
reservoir
pals
##FC
Fib
Australian
dynam
supportive
wastewater
seek
stretch
##bit
papillary
overlapping
endoplasmic
cephal
avoided
progressively
agar
##razole
Lact
##ilis
JA
polymerization
books
striatum
Postoperative
##oting
hypothalamus
##opter
Cre
paclitaxel
glycerol
heating
adhesive
##odontic
perp
##olet
99m
infertility
guan
genetics
##gic
liposomes
G2
laid
Sn
putting
Liver
angel
##owledge
Change
##vin
descending
CD34
##mium
demographics
##requency
##imp
Healthy
medias
escal
##urch
discontinuation
boundary
Cells
##ocept
##ecl
Diagnosis
##ophosphamide
##vac
BI
infarct
newborns
C4
temporary
##onduc
connections
##endocrine
pyrid
prolactin
answers
##ocardial
duodenal
caffeine
##izer
MW
intraperitoneal
efficac
physically
Anim
Techn
##ket
porous
sided
metalloprotein
scared
RN
Web
TRA
serves
mesh
Global
##vised
honey
##titude
forth
interd
Pot
##ander
cave
##enzyme
relating
doxorubicin
endpoints
nucleic
verify
##N2
epitope
structurally
EMG
propagation
Brain
brains
activates
caroten
ban
promoters
voluntary
##nutrition
crown
influx
inhalation
##utase
chart
captain
Os
##parts
##osol
##ectomized
axonal
intoler
ethylene
Criter
prepare
hydrocarb
graded
IQR
expectancy
hyperp
frust
eros
DCs
##ido
spreading
D3
colour
##oding
elongation
asks
##brain
ber
ACS
##arby
filament
Quantitative
sput
pictures
excitatory
Mc
chit
manifestation
mask
Meas
##acyl
hardly
##family
##men
fabricated
##67
transferase
##etary
##isely
##aterials
arran
Hispanic
##H1
Men
##accha
depleted
accordance
##DLINE
##L1
pollen
differs
Phe
##ofol
breaking
summarized
M1
Sa
##T1
termination
##bles
Increasing
Onc
moist
##ucked
inappropriate
Development
##ama
##35
flesh
Gol
defining
##ingly
##yses
septal
##enched
motivation
CEA
compartments
diagnose
dB
##MCs
Lik
innovative
fused
percept
cholecyst
fertilization
NOS
homes
circle
VD
antidepressant
MEDLINE
cyclase
dysreg
tang
##urgery
paediatric
retrieval
Po
reacted
NSAID
reinfor
hydroly
##PV
inability
spike
burs
bacterium
oxal
amput
##board
solubility
Exposure
##ilst
Review
##asses
reb
zebra
shoot
Perc
Eighty
Mental
##arial
settled
##acrylamide
letter
forever
incorporating
Hyper
facilitates
hanging
causative
modifying
##ylind
spectroscopic
Female
##oal
stare
German
Ta
wanting
accomplished
CCR
##rotomy
resorption
##monic
Cross
cub
remarkably
tors
facing
spend
colonies
neuromuscular
Visual
bases
dermatitis
kil
awake
primers
prostatic
jen
glyce
ili
cloth
H2O2
shouted
##aches
##orr
danger
finite
fool
interventional
nutrients
mari
SBP
gentle
Mycobacterium
apnea
accommod
predicts
##PCR
confirmation
unders
detector
Net
transporters
##itudes
enabling
cutoff
rit
##bodies
##iazep
##emy
busy
pretreated
Americans
bru
phil
helical
mediates
irrespective
approval
ancient
adrenocept
sufficiently
contract
freedom
##plicate
##kes
bioactive
counterparts
Approxim
binary
guideline
ot
perfused
nanos
endovascular
coordinated
##orable
BRCA
Mass
stake
foci
minority
interacts
##oblot
suspicion
##aminase
priority
##icidal
inherent
bin
degenerative
surrounded
stimulates
##quis
hered
Whe
##idic
##tification
preoperatively
##alin
avoiding
##uts
trich
##ders
BDNF
retinopathy
entrance
relate
Emb
ribosomal
lineages
rhyth
platinum
absorbed
##heal
##ounted
underestim
NADPH
sut
cultiv
ANOVA
cef
crossover
vasopress
##istically
analogs
CFU
##ecess
antigenic
row
MN
exhibiting
immunoprecip
##uan
flavon
##AR
catalyst
writing
Ver
plot
claims
##hypertensive
##tip
acceler
stresses
##ochemically
wouldnt
lucifer
mapped
grades
RAS
Whereas
ammonium
White
MO
crim
spherical
trabec
##osites
connective
suicidal
sexes
competence
shake
##arynx
burned
LG
perforation
mating
glucocorticoid
twisted
##pe
##cean
Normal
chromatographic
lake
executive
reinforce
publication
Mel
helps
twit
dismutase
N2
##otroph
annot
aph
cried
##PE
spots
gynec
clients
differently
##je
ECM
Sci
vestibular
menstrual
unfold
measurable
lymphatic
mAb
initiate
psychiat
microsp
drove
Consid
##VI
supplements
vampires
bell
properly
instant
summarizes
Lung
macro
pulsed
san
nov
autism
Fou
trade
drivers
denat
##opathology
Ras
ont
neuroc
Mat
Tyr
CRF
##onary
cytology
breakfast
couch
isop
tubes
Dou
##ois
indicative
##ondyl
Treg
behaviours
pink
##ailing
##roke
Ba
ether
lu
##ritin
imbal
CoV
cerebellum
H3
irreversible
Active
##racycline
stig
confused
theories
dermal
##uccessful
##glycer
Dat
MAL
##inform
urg
##acle
assumption
existed
comfortable
wider
##amer
comorbidity
dissolved
##rolimus
arrays
west
abdomen
##artan
Oste
##ifferenti
##inous
toss
nonspecific
Small
##ha
Pd
West
ras
definite
Perform
Inhibition
bup
slamm
sulfur
electrophysiological
warf
##ucose
il
Disc
##P2
##rexate
skill
pieces
mutagenesis
oxygenation
##idone
embolism
mesenteric
Criteria
##rogate
##AG
##icans
Breast
##pa
##cein
aryl
##oneph
pathologies
##romyces
nin
##ecyl
MDS
aux
fruct
lock
debate
immunized
weakly
AKI
thereafter
births
adam
gard
oncology
forearm
sector
Streptococcus
FDA
##amn
meningitis
Approximately
laryngeal
scent
##violet
ignored
##ourse
##pons
CRT
Examination
##otion
##erving
##ck
##rd
sporadic
encomp
babies
packed
hemorrhagic
shortening
Dose
converting
haemorrh
##ineal
messenger
##E1
blond
CAT
eliminate
constituents
11
Science
MY
##obarb
tender
multif
loose
junctions
ammonia
interfering
slud
nig
symmetry
Before
Outcomes
AMI
brush
foss
##urons
unex
##isher
epileptic
##ophyll
jeans
fitting
mediator
lactam
##rices
##itate
##eties
Lymph
islet
propensity
choices
quantities
tracheal
ingred
##asi
possibilities
splenic
Synd
Determ
bacteri
##utch
##ethylation
##anger
##enem
radius
eleg
augmentation
cerebrovascular
inputs
Fourier
hypother
arrangement
Golgi
Def
puber
palsy
RBC
mercury
##emed
AU
ascorb
##olipid
##R2
##EB
cleft
recessive
##olk
##adjuvant
dance
##ulas
aeti
ophthalm
##urate
collaboration
mixing
dere
cutting
omega
tryptophan
##empl
##ulators
follicle
deletions
##icted
calcification
1st
##flav
differing
##epithelial
adenoma
Direct
fibronectin
##face
grim
disulfide
characterised
decide
turb
engaged
musculoskeletal
david
##isters
nearby
balanced
retardation
F1
methionine
cigarettes
viscosity
photoc
scenario
##ford
BH
tailored
phenolic
intermediates
##otrexate
spray
##ortal
DG
GO
##clusive
##oken
##aric
percenti
fum
phon
regurg
breaks
confirming
##tinib
embolization
crystalline
prep
lactation
##accharomyces
##orth
lnc
originally
prescribing
couples
retro
##otics
modelling
lunch
sequel
##itance
chiral
slip
nanom
cyclospor
restore
gri
##iring
Mid
cone
##NO
teen
titanium
pmol
hated
##emporary
microd
herein
Maxim
deformity
##book
SPECT
SHR
carn
infused
BSA
multil
##mann
americ
Aff
demonstration
geometric
##valence
oocyte
pivotal
consequently
hCG
bundle
restrain
pacem
regularly
##vie
Latin
virtually
catalase
stationary
Pi
##olateral
stated
motiv
##gestive
leucine
ADA
coil
cyclophosphamide
glucagon
##onectin
stuck
##ourable
Contin
dilatation
##orders
closing
Ala
cylind
alumin
Local
P3
##ivac
KO
##owled
applicability
emissions
asleep
excluding
deploy
displays
##AA
BALB
##olymer
##lipidemia
##odic
##ye
diameters
hydroxylase
FEV1
codes
1H
notion
adenomas
##taining
percentages
gyrus
##ophosphate
NAF
LDH
repress
fort
childbearing
corticosteroid
elast
dominated
Taiwan
Model
synovial
eyel
diagnos
downregulated
SMA
interrupted
saturated
HG
Week
##zz
Lim
ride
harder
frey
##omide
##sth
hereditary
tap
##phasic
autopsy
CAM
##luded
happening
unl
rom
inactivated
gels
metformin
abstin
positioning
physi
curv
##ittal
vulnerability
axon
##oreg
expiratory
vaccinated
departments
Hydro
extin
amongst
calor
Few
Bayes
contrary
confocal
Have
York
illustrated
immig
flick
toxicities
retrograde
stents
hern
allergen
ICP
chemically
Mus
solar
flan
sludge
scope
##incter
trafficking
##urc
##stairs
##ramine
pushing
wondering
Asia
unexpl
NCT
enlarg
stratification
##acil
zebrafish
venom
anesthetized
fid
nodal
medicinal
attended
Prop
##hips
centrifug
Adj
Retrospective
grouped
reconstructed
calves
Canadian
hysterectomy
##95
##otyped
specialist
shower
intrauterine
raising
precisely
bob
signature
illum
Black
##tigraphy
Mit
overt
agricultural
spindle
thrombocytopenia
##silon
computerized
margins
fibre
mobilization
##HF
nitros
Open
ineffective
spermatozoa
##plies
folded
brow
sob
peace
##63
antihypertensive
##etine
##quar
##agia
subsc
exceeded
Rating
uterus
beer
silk
confounding
plasminogen
ace
##keleton
JNK
Calc
offering
##vated
scienti
naive
hunter
abrupt
##LF
##iments
anticipated
proteolytic
extending
##role
fractional
Pediatric
##acetic
clonal
chitosan
Plasm
downregulation
Regard
occasionally
rays
##eption
##quine
naked
trib
arrhythmia
neuroendocrine
esophagus
flood
##agglutin
##formed
PLA
hypothesize
angioplasty
compromised
cream
Known
segmentation
dissoci
geographical
PRL
immunomod
PCA
antifungal
counting
##asant
Southern
EN
##otopic
##La
##onv
latest
##lobulin
Iran
vesicle
##oo
haplotype
arachid
microv
worsening
##jective
hemisphere
ackn
ni
rely
Diagnostic
tablets
France
effusion
macrom
Anx
##abd
catheters
asymmetry
neuropsychological
unfav
##gamma
##itron
gradients
holds
elicit
luminal
HBsA
von
transcribed
##gging
5p
subcellular
##olated
Et
kary
impression
figured
##anna
##ioma
Registry
lign
##oval
extr
confusion
dear
Complete
responsibility
Act
Obser
EMT
hygiene
exploratory
Spanish
##istan
perfectly
drawing
initiating
arous
PGE2
##ci
1beta
##roduction
loads
LE
reciproc
##asy
teams
##atched
witness
congestive
##ocycl
capabilities
ubiquit
conducting
expenditure
hs
##ramidal
##ira
deposits
consciousness
##henol
creation
tropical
miles
##PSS
mtDNA
MCP
##inear
asthmatic
fitted
sheath
##urning
landscape
semic
myelin
unnecess
subtle
pathophysiological
Italy
confirms
victims
cel
##ji
amygdala
bank
join
documentation
career
cred
cooling
addiction
##oted
enamel
##aign
immunost
Cer
crypt
##personal
luciferase
polymorphic
##pi
jason
dani
amen
neutrop
basement
weather
immunosuppression
passing
##iber
##ications
##eces
sheets
oscillations
worm
##romagnetic
Syn
aldosterone
College
volatile
frank
##amino
purch
Medicare
overexpressed
reliably
screamed
##fulness
##anz
battery
##RC
albicans
cesarean
East
iNOS
BV
Chi
fifteen
conjunctiv
Laboratory
orange
ultraviolet
impedance
oz
faculty
##inge
nemat
Est
friendly
##ivacaine
micromol
perceptual
beta1
buc
segmental
mike
filaments
##ogl
overw
plasmids
breakdown
microtubule
derive
theres
Individuals
fen
propofol
##FT
neighborhood
##ago
Ninety
twins
scaling
anticoagulation
Young
lambda
Subsequently
##istance
tumorigenesis
HMG
dysph
pointing
larval
Tiss
psychosis
quit
lies
michael
Magnetic
##ASE
constitutive
protecting
polyacrylamide
##gene
Ultr
faint
salvage
detrim
incomp
immunocomp
anywhere
citrate
##oretic
##ulse
Eu
invited
Datab
##bone
intent
##PP
California
endotoxin
pell
shoes
Rap
crisis
freezing
prosthetic
##odiazep
isotope
Cognitive
pec
Hsp
arsenic
fallen
thrombus
thymus
leather
monolayer
exercises
fibrous
buck
Insulin
GFR
##ican
RO
aquatic
##oreal
##list
emphasize
biotin
solely
femur
##olipoprotein
allocation
IVF
##infected
##obenz
mary
sug
##lycemic
AZ
compromise
##yph
residence
##pered
##plants
warfarin
innoc
juice
inconsistent
cationic
##eping
thymidine
convenient
microgram
##zo
HBsAg
NB
lets
Pan
Previously
lymphomas
##engue
Ga
APC
Epidem
conjugate
patency
overd
civ
Pulmonary
guards
M2
nights
##arrass
CCK
Mor
comment
glutamine
sterile
B1
##illar
stopping
typing
senescence
viewed
planar
##enses
erg
swallowed
##oves
proteinuria
Gre
Internet
disrupted
##thrombin
Sex
##ask
PDGF
NAFLD
discriminate
degraded
compact
district
##arter
gelatin
Unlike
conductivity
names
cage
employees
chief
intron
neutralizing
altering
Little
acupuncture
inequ
##ealand
craw
hallway
illnesses
Educ
Upon
dealing
pants
outbreaks
embarrass
##well
cue
quarter
p21
efficacious
matrices
harvested
Family
folate
lysosomal
chemokine
##inery
##L2
##omethacin
##opharyngeal
corpus
Hal
exerted
Korean
##imaging
Adverse
dehyd
NGF
medicines
##outes
##WI
attributes
24
##ua
Outcome
##wood
osmotic
##yer
cochlear
facilitating
adenovirus
Bar
##oglycan
signed
Eleven
##atric
Pac
autoantibodies
synapses
murmured
MDR
neoplasia
Another
Ed
##nic
sne
therapeutics
##otri
chase
scalp
hierarchical
slee
Activity
esters
catheterization
decomposition
intramuscular
##play
microglia
erythemat
noct
wished
button
##urin
##iently
cadmium
shiver
vent
exit
##rio
indirectly
##otent
##ofacial
Syndrome
deeply
Prac
naph
proximity
diagnosing
psychotic
priming
HeLa
Management
soldiers
iliac
succin
endometriosis
necessarily
Experiments
ceiling
alarm
##idium
##oxia
periodon
##oker
glucuron
colle
Prevention
losing
##olub
intensities
stick
zane
##oreceptor
discipl
##Ts
routes
##99
##tia
jon
absolutely
vasoconst
lavage
flowers
##odend
shadows
flaps
deformation
titer
Sleep
rachel
##A2
reagents
presentations
Notch
habitat
begun
epsilon
timely
##oxifen
About
instructions
TV
##xual
deviations
soybean
##orh
nanotub
epic
lex
batch
Period
nal
Go
sliding
pyruvate
Rats
oxyt
nicotin
##rotid
OF
crying
Factor
misc
implementing
freyja
##agger
grading
ascertain
Prof
taxa
##omnia
sav
microw
##onical
oligos
silicon
phospholipids
campaign
political
Zealand
##entary
##ishment
semen
CABG
adolescence
Ru
##zymes
importantly
ferritin
brainstem
atopic
operational
joined
tons
removing
##ocyst
exploring
##lamyd
desirable
stretched
##IV
harmful
orbit
MTX
terminals
##ranolol
##udd
singlet
washing
regime
##bred
multiplex
##44
projections
cabin
borne
##tise
functionality
methotrexate
blade
choline
faecal
Accordingly
Double
##ropo
PCOS
identifies
Whether
aband
##otechn
finish
lymphaden
custom
LB
dissolution
sphincter
weird
starts
Ec
mumol
RCC
void
yours
Prost
Neg
restor
WM
assume
patches
caregiver
##lastoma
thermodynamic
glycemic
MTT
##raduate
##ophysical
kcal
Saccharomyces
pose
##bladder
primer
##eterious
Considering
strengths
hydrochloride
electrostatic
stimulatory
R2
refused
engage
MCA
beads
peter
islets
lucky
biodegrad
projects
pic
price
contribut
pra
##cell
angiogenic
RH
tort
Cycl
E1
##orylation
trail
feels
##urine
yelled
Factors
permitted
metallic
rodent
cytosol
regurgitation
solvents
Fifteen
possessed
transpar
physic
natri
neuroprotective
Th1
covariates
Phot
replace
##ondon
calf
neoplasm
butt
ascending
hydrophilic
refractive
failures
damp
Bacter
NIH
C5
##ulture
suppose
ryan
Performance
TEM
##oprotective
##CH
consolid
appoint
trapped
phospholipase
wing
transcriptase
##real
tat
cations
vin
divergence
doesnt
##cus
##ride
axillary
serving
immunoblot
adoption
overload
ICC
pyr
##ciparum
hotel
leaning
figures
smear
exerts
relaxed
AQ
nanostruct
deleterious
Yet
livers
Indeed
resolve
duplex
spaces
murder
Imaging
##ania
pod
deposited
Cong
##yal
recurrences
sequelae
definitions
golden
##onium
electrolyte
utilize
##azone
notes
demanded
##rank
CXCR
Effect
swimming
vo
sensitized
extrap
hyal
entering
teachers
30
shapes
prod
occip
ascites
##vix
##Ca
beth
chip
##odemographic
##nexin
curriculum
Bal
dedic
nanoc
##ancomycin
Anxiety
ACL
lysis
TOF
##alanine
phosphoryl
unnecessary
polyethylene
digestive
P1
jun
Survival
surgeries
cloning
chaper
CTL
bending
generic
##etra
programmed
##acetyl
lipase
##ogue
anticoagulant
ductal
dissemination
helper
3p
glycosylation
IB
avian
##onuclease
##ullary
##NAc
tubulin
era
##umental
varic
Commit
disappearance
parenteral
##DH
locomotor
package
marriage
hamster
chickens
Tg
##iously
##itted
falciparum
shes
reminded
##orbol
##olation
extinction
##onymous
pou
ACC
##olecules
##regn
##ucl
afferent
explos
prey
##olves
gradual
hematologic
fairly
neoadjuvant
pharmacy
drunk
origins
##force
sha
funny
##cholesterol
module
##XR
##amyl
progressed
poisoning
mountain
##fil
##88
radioimmun
detrimental
RSV
lattice
##idol
supr
piper
EE
Ov
Phosph
preecl
incremental
invari
aggression
cytoskeleton
Case
hyperglycemia
hadnt
rolling
disabilities
nont
troph
cured
leader
delays
insects
##aired
parac
Lew
broader
trajectories
assumptions
##abis
string
chemotherapeutic
contexts
##imension
##rig
tracer
NG
assignment
penicillin
dilated
##aldehyde
malt
vertebrate
racial
Caucasian
##inin
whilst
covers
##36
waved
bringing
caution
benzodiazep
chemo
ABC
heading
polyps
lenses
rodents
monomer
discontinued
seb
Tum
##opathies
roof
cloud
practically
tablet
blinked
visualized
caudal
##field
enhancer
isomer
nanoparticle
ram
saved
title
Sel
heterozyg
acceptor
favour
yielding
automatically
rever
##itinib
GW
cities
invest
LL
##tes
##IST
##irection
decompression
belonged
##G1
format
Av
herbal
##edema
brothers
sagittal
relapsed
##tiles
xanth
radioactivity
MDD
multidrug
manifested
negligible
glasses
contemporary
sigma
plexus
unid
chronically
nocic
##unic
EMB
salts
remed
ideas
##omere
Bayesian
MSC
rationale
##iesis
fruits
##igibility
topics
Database
OM
VC
flying
substitutions
successive
develops
inositol
synthet
senti
proteasome
adiponectin
Bel
##raining
GLP
PDT
proteases
gau
opioids
Poly
Alt
designing
fault
hug
granule
originating
http
GG
hydroxyp
##growth
Analyses
dib
Nit
KD
NY
genera
webs
Spain
intellect
##oxidase
rooms
anter
##SP
butyl
##aginal
##atellite
acceleration
maize
Th2
sarah
##oquin
##ionate
machinery
victor
scattered
hydrogel
##ju
gains
##aterally
biomechanical
##imes
nude
##arn
paul
disparities
##moid
differentiating
colonoscopy
dichlor
##amen
VTE
amine
Km
CHF
odor
buried
##iop
ceramic
necessity
Cap
expanding
aberrations
##urium
client
##ophilia
##randial
church
whenever
relies
##anus
##ames
##oscope
vapor
immunocyt
acryl
##ords
dedicated
##mus
toxins
buy
##coplas
siblings
##etics
immers
Knowledge
Character
distinctive
bread
humoral
##alc
PMA
##rete
fungus
enorm
VO2
infusions
alternatives
cole
##azepam
##ww
Tissue
observer
##othelial
surviving
stretching
overwhel
##oped
##ume
##DD
circuits
##ulous
##opulations
Sign
encode
reserve
##NE
possesses
plateau
##ipro
gover
epinephrine
compensation
##47
fabrication
km
##rep
encephalopathy
Clinic
happens
disab
##oactive
depended
immunoassay
evil
##ritish
serological
disseminated
##uma
##Ws
Lower
chose
##f2
striatal
keratinocytes
duty
lactic
##ece
immobilization
sparing
cholest
breathe
##issa
operator
emma
DHA
weapon
##racheal
CpG
vegetables
Vers
accumulate
##ystic
atmospheric
drinks
arranged
##ashes
robotic
sedentary
##brile
reagent
endoc
fuel
intelligence
tab
vasopressin
FISH
laparotomy
PAI
sputum
stories
How
dentin
cGMP
dilation
obs
Samples
malnutrition
modeled
kinem
inten
##idation
eradication
slice
##yx
##ethanol
oblig
angular
GB
ds
noradrenaline
##HP
rearrangement
ulcerative
##umped
piss
uh
attain
Chrom
gated
vitre
NAC
instances
cofact
trif
cervix
caring
tread
gallbladder
##IM
Main
##jug
triggers
Gr
bulb
Lab
airways
messages
encourage
Has
mons
##ortality
procedural
antioxidants
##dis
polycl
interactive
##inator
scrap
swing
qPCR
##coming
nos
What
organizational
##inesterase
##chol
spatially
Che
jacket
entities
Hol
exons
strang
BE
tod
detachment
Consistent
concentrate
##itives
village
metaph
repression
judgment
##iam
spell
depolarization
thiol
pu
loos
##enching
washed
posttrans
stroma
aerosol
abstinence
claw
exponential
apolipoprotein
biosens
##wann
breed
##clusions
shifting
hematological
insensitive
##NTs
CLL
bloody
King
Associ
##F2
##rogram
pollutants
##ucleotide
##mill
##K3
constitutes
enlargement
FN
pace
##55
##olism
hollow
surrogate
##icate
EDTA
##stone
microl
stores
Nat
bid
Wil
##ozyme
AKT
truncated
rights
disordered
adipocytes
Large
journal
mate
Italian
Preoperative
##osum
##osamine
Sec
##GH
##1a
plots
imply
slide
##relation
cadaver
CHO
particulate
##ativity
hematoma
whats
##ofen
extremities
amazing
ocean
stepwise
forgotten
Ir
##ki
ischaemic
explaining
till
Mark
Glc
indomethacin
monkey
normot
cholangi
##cr
implies
conjugates
##etite
acceptability
selenium
Therap
deterg
cavern
Korea
presumed
Bax
modulates
appra
Great
borderline
alert
GBM
postin
covalent
##roline
periodontitis
percentile
Collectively
drops
merely
peroxis
puncture
boundaries
adsorbed
##inositol
##lass
postsynaptic
antisense
Growth
BCG
ultrasonic
Initial
encouraging
##marks
##ixed
DQ
##orax
##reon
shoved
##aco
genotyping
Cx
chimeric
##glycerol
specialists
narrowed
army
narr
plur
cleaved
freeze
Monte
##istribution
Sl
doorway
##imeter
fructose
creatine
letters
scarce
donation
##izable
hypoglycemia
climbed
##orphyrin
stakehold
concordance
cotton
##noid
excised
selecting
pressing
medically
semantic
rubbed
laughter
intercellular
metrics
Conf
NLR
##athan
Special
##vacizumab
Hepatitis
Average
beach
collecting
##dominal
##diagn
ultrastructural
revised
stern
translated
len
comprises
##opyran
nitrite
seth
generations
lidocaine
##tention
bony
UA
postural
attracted
##atite
##arinic
incorporate
arousal
annoy
statement
##ensic
##ifier
lea
relieved
stressed
Mr
proline
##42
B2
DES
accessory
thickening
EPS
fos
##CN
syring
tubules
collapse
Combined
begins
positioned
Committee
PPI
STAT3
mission
fought
##leting
imbalance
Coh
##rophot
##jury
returning
##ocysteine
backward
##eliac
switched
typh
Common
echocardiographic
##earson
postulated
##ante
wont
competing
##68
clay
sacc
loops
suited
OV
##omyelitis
##39
MU
vancomycin
Measurements
propranolol
##itan
##uzumab
diagnostics
##oluble
crossing
Dys
Logistic
substitu
PMN
bast
dens
paraffin
exacerbation
polysaccharide
Altern
sink
reoper
interplay
APP
trajectory
##ordant
updated
tex
urethral
##oidosis
Thr
permits
tetram
cm2
##ns
exceeding
supine
cooperation
charges
Morph
##oxane
thousands
NPC
ICAM
pelvis
morphologic
insectic
conve
##inement
linearly
notably
synthesize
mG
bromide
foundation
eGFR
menisc
corresponded
##48
quer
amputation
rush
nap
CBF
FH
PCa
agglutin
Hu
##borne
##osensory
infrequ
menopausal
##ouracil
##org
##ASH
pacemaker
underlie
imprin
Prote
microstruct
Nr
Ro
lactating
kel
stun
C6
Ps
Down
granular
regenerative
##ART
disg
##arsh
erythropo
serotype
scanned
raises
jim
Estim
sto
elabor
belt
##75
sphing
positron
Mice
tu
shortly
outpatients
outflow
assembl
realistic
Fox
nail
##ij
sociodemographic
##ados
##ewise
HDAC
polyclonal
aunt
Pret
##ercise
dengue
##acles
ali
spondyl
##anning
##osom
##TS
##flex
swine
maze
dislocation
##outs
##ositis
ie
whereby
comply
intolerance
panc
weaning
Pregnant
solitary
lymphocytic
##itt
mandatory
Cop
rick
Plasmodium
arrival
IGFBP
destin
amplitudes
haplotypes
Pearson
seal
##irium
PAGE
polypeptides
sandw
tables
Py
##omethyl
RPE
scientists
BK
inversion
dyspnea
electrosp
funding
cosmetic
Ce
##Hz
hiding
Bu
##apped
integrate
cleaning
instantly
##mp
Fourteen
##obacillus
highlighting
neovascular
vibr
HCT
upset
lift
obsc
simulate
secure
##ichi
inhab
east
rotational
aggregate
Circ
docking
##ivalent
sati
oncogenic
VF
liz
investigates
PAF
dot
nobody
edges
heterologous
##kinin
AMD
deaf
priv
slammed
emphasized
##ationally
pharmacologic
##ini
welcome
incred
FNA
reaches
Trials
##umps
##criptions
##die
Advanced
uve
senior
BN
files
hundreds
eyed
##ulsions
Angi
parenchym
##unicip
tossed
backbone
appropriately
CYP3A
ian
polarity
##osamin
AEs
ultimate
eleven
Vitamin
lad
normalization
hepatocyte
##urred
##citabine
struck
phospho
Community
subclinical
suppressing
physicochemical
accidents
clut
mail
boat
##ulae
##hedral
addresses
##luor
intakes
PDE
quadru
restaur
rein
brushed
energe
Integ
##obacterial
coded
lamina
##nals
glycoproteins
commitment
##eat
HV
##otemporal
allerg
iter
##IO
hospitalizations
listed
Interview
bitch
antipsychotic
filters
Eastern
quasi
natriuretic
Once
##arach
guar
Arm
Levels
AMPK
GPs
REC
squeezed
pyro
Vol
##icol
WB
repeatedly
tomato
##modulin
nocturnal
generates
laws
columns
anomaly
laryng
sediments
CDK
representations
transplants
##tide
##quartile
pesticides
radioactive
endurance
Groups
atax
progenitors
benzene
##igenous
deficiencies
##itine
Trp
##vular
multis
epidermis
lipoproteins
retain
##andibular
regret
aven
taught
Presence
fright
Carlo
touching
##apa
oligonucleotide
Gast
dreams
conflicting
alt
packing
bea
##ussis
administrative
magnet
TIMP
Nether
##atectomy
potato
explores
microwave
amy
psychometric
bilayer
opposed
CsA
evolving
oxytocin
##amol
kicked
brachial
eu
Mg2
encompass
##the
GVHD
enlarged
discussions
PGF
wings
##utation
disk
intellectual
CXCL
##FS
##rology
somatostatin
intrad
TLR4
documents
swallowing
functionalized
consumers
selectin
achievement
##eptidase
clustered
##orectal
atmosphere
heal
polymeric
furn
##omavirus
eru
CML
vasculature
##abolism
##osexual
instance
##uod
hyperther
Emergency
canonical
##tigm
##aming
neutropenia
staying
LY
curc
##oter
Orth
fathers
corresponds
erythematosus
Stroke
spiral
diary
checkpoint
promised
Port
weaker
hypothermia
neuropathic
##onitrile
synthetase
interquartile
acetic
Rad
##entanyl
cook
crew
immunoprecipitation
wooden
mosa
intran
intrap
advent
##oxetine
geomet
##ranean
##otropy
Number
eric
EU
##pergillus
plurip
##functional
adducts
Sensitivity
duplication
##ocysts
combat
Compound
##prisingly
este
##imed
nickel
hyperc
expertise
fractionation
knocked
##ulent
splice
Netherlands
gasped
##iliated
Alcoh
alters
England
supernatant
disturbed
hook
##ulo
advoc
##uinal
##nar
parasitic
burns
transported
BCR
##D1
Coun
outline
##eteen
hydration
Sixteen
VIP
1alpha
##eria
leadership
terrible
preceded
resultant
Back
antidepressants
##amicin
##tilis
##ATA
malformation
stands
benzyl
curs
Systemic
ON
ketamine
##cel
dodecyl
School
MCI
Super
##okes
surely
pools
prev
##orporeal
beats
www
arachidonic
##66
Les
Demographic
drif
exclude
angiographic
2A
distinction
ss
exclusive
keto
##agged
##atization
uncomfort
determines
anne
histopathology
proud
swung
Haem
modules
labour
S100
elusive
##M2
combine
Rece
SAP
preeclampsia
geriatric
coordinate
SES
chondrocytes
Concentr
tamoxifen
hypothyroidism
Cs
##ript
##45
##aper
flut
helic
capital
myocytes
doped
Mutations
detox
ou
transcriptome
enormous
ERK1
logan
Environ
##WT
Ill
histidine
oligodend
##ochastic
carbonyl
jet
eligibility
constitutively
gigg
##imensional
instrumental
performances
Dem
##ymp
opens
##hop
rearrangements
##acrylate
posture
anthropometric
PAP
##ignant
inch
EL
rim
occasions
parenchyma
readmission
deduced
ageing
flew
cardiomyocytes
##arbonate
##ipple
oliv
suspicious
##zi
##ario
electrophoretic
pray
##icl
##atheter
gonadotropin
incis
stressors
##insulin
##ocrit
oncogene
households
Unf
##rone
placing
amylase
distraction
velocities
droplets
##igenic
neuroblastoma
treadmill
weapons
Ont
necrotic
Den
pond
EMBASE
dependency
Smad
cc
insomnia
gov
##atern
qualit
spectrophot
Sweden
DFT
freely
##oxone
guardi
Spect
kissing
mismatch
##32
diag
##cetin
##rae
microsomes
Hypert
methoxy
##iguous
terat
radiolab
Surprisingly
MetS
encounter
immunostaining
conditional
cannabis
##metrical
AOR
Negative
amide
hyperactivity
hoc
##afen
SNA
palp
parking
collateral
Acad
ka
##bach
solve
##iva
vacuum
##opres
thomas
meals
slept
cytogenetic
suspended
##PI
encapsulated
ubiquitous
simon
BPD
ovulation
beating
Oper
traditionally
explains
segregation
##owed
Apo
LOS
prednisone
circulatory
ari
IBS
Veter
crest
microspheres
mechanics
woods
Brazilian
microsomal
thirds
microbiological
blunt
radioimmuno
antenatal
allelic
polarized
pix
acidosis
rhinitis
eastern
##uated
occupied
Helic
##kary
surprisingly
sharply
Aspergillus
settle
phagocytosis
carbox
##annah
Oncology
DB
listened
unin
occipital
HepG2
henry
favourable
##isy
septum
duoden
heterod
sustainable
indexes
Thromb
outlined
daytime
faith
compensatory
accompanying
introducing
Medica
Mechan
dependently
stenting
##ithromycin
broadly
acted
Clinically
regulations
kat
file
palate
##cope
adherent
recommendation
##idym
tuning
Histological
##iabetic
calmodulin
##ifferentiated
neurotransmitter
observers
workplace
Activation
undetectable
Network
stock
subtilis
protr
##orin
endocard
fingerprin
maneu
##razol
SOC
haemoglobin
##arrh
adenine
granulocyte
osteotomy
febrile
request
##onscious
palmit
deox
Stress
##esthetic
##peritone
diphenyl
##angl
drying
OB
##radition
pharmacodynamic
##optimal
instin
integrating
joe
supra
biphasic
scintigraphy
GAD
formulated
Thirteen
mutual
boots
corticosterone
sport
##rys
DBP
Service
patent
dihydroxy
spoken
##uns
firmly
##lers
excitability
Mortality
journals
cholecystectomy
Ach
rushed
carboxy
liv
##Us
##ths
associate
SCA
ank
Fre
union
fluorescein
##uminal
##essed
warmth
straw
overlo
2nd
overexpressing
hypertrophic
Flow
Notably
proliferating
uric
sorting
prosp
protects
EO
subpopulations
pars
##uliar
prototype
##opedic
pyramidal
manufactur
##alled
pause
dysregulation
hello
collaborative
HPA
##inger
curvature
bonded
##iana
Gd
managers
outd
shocked
mistake
subscales
microtubules
acquire
transit
curcumin
NIC
joy
delivering
##traumatic
configurations
transferrin
##59
stigma
hungry
devast
preserve
##yles
##orrhea
suppressive
H2O
legis
problematic
CAS
artifacts
##AI
nitrop
vertebrates
dur
valves
##case
confron
bim
normotensive
daniel
claire
Count
everyday
dispersed
CBT
dystrophy
wedding
##ocortical
neuroimaging
intravascular
##okinetic
nephrectomy
TPA
##opaedic
ADC
bioinform
traine
drought
proceed
moisture
##ignificantly
##WF
Coronary
##elfare
Maternal
##inis
##okinase
discrepancy
##77
CDC
##worm
##uish
dollars
illustrates
isomers
slowed
Fab
hill
competent
weigh
epidemiologic
desorption
remn
##ophilus
##sey
excuse
##anin
gods
methodologies
Occ
tilt
games
diaphragm
Mann
Ant
undes
runs
##D2
teacher
religious
biosynthetic
##ortem
belly
MAC
modulus
kar
aspar
nodule
##S2
libraries
adrenoceptor
CAR
Trich
##120
willingness
eosinophils
##cting
NPY
macroscopic
Sem
alternate
Classification
sacrificed
confounders
##Cl2
stochastic
##relin
belongs
deemed
##uran
25
amniotic
Vascular
##obarbital
Fail
methylp
paralysis
Ech
impacted
mosaic
forensic
##ariatric
coronavirus
Medicaid
flies
Peripher
worn
histories
##irectional
##obser
urge
glioblastoma
lasted
##aron
healed
comprise
voices
mediastinal
specialty
##ila
endothelin
CaM
recycl
arterio
Meanwhile
IE
Ref
sending
antiserum
CD44
statins
jerked
Pat
Mexico
##actor
interpersonal
unfavorable
luke
##lessly
acknowled
##etaxel
##cts
bios
thaw
LO
additionally
salmon
prime
hybrids
##aque
paradox
##yrene
tolerant
characters
calcit
enrol
Cohort
evaluates
histopathologic
cath
screaming
SCD
micelles
##len
##enoic
melting
dimers
destroyed
hypo
phenol
counted
tied
##reonine
peculiar
##infection
ICA
desens
##iate
Fisher
acutely
Jun
phorbol
##ependent
PLC
curled
Rou
orthodontic
dendr
composites
pyrim
dispens
contrad
KR
potentiation
casual
##33
HCl
interm
IOL
orn
PUFA
ZnO
##aser
update
preferential
City
Abeta
exud
SY
guarant
triggering
prescriptions
electromy
Carb
farms
Identification
incon
##aks
BMS
Adoles
suck
nif
##iprofloxacin
mug
##ifies
GE
tremor
Therm
Pap
River
searc
pertussis
charts
##auss
Guid
NSAIDs
ecosystems
##seous
BG
oils
##uries
cars
satellite
microsatellite
narc
simplified
accessibility
IG
##quisite
##tipation
##549
page
##ague
municip
theoretically
ovari
Niger
cultivation
flashed
medullary
attentional
visited
dressing
PKA
HTLV
qualitatively
##iterranean
suppresses
Polym
proteomic
bigger
individualized
hypercholesterol
divergent
##reted
astroc
abstract
assuming
prostatectomy
frog
beef
globally
Weight
aiming
clinicopathological
sulphate
sparse
preserving
thinks
tidal
Dutch
powers
##enopus
collective
DMS
aligned
dirty
analytes
reinforcement
monolayers
allergens
##cript
independence
manufacturing
ALP
penetrating
demyel
##ulants
##itum
huh
3rd
labelling
concrete
clo
##genesis
IHC
##icated
reciprocal
garden
##rett
##ropine
Peripheral
##uspid
muscarinic
catalysts
laparoscopy
Src
##tebral
oxidant
globulin
Ol
diarrh
transmit
contextual
prolongation
##ostrid
terror
##platelet
schemes
##amins
VO
characterizing
epididym
tour
silicone
thrombotic
housing
Xenopus
Relative
##itter
aggra
##uel
kate
Us
BRA
aetiology
transiently
fucking
##FGF
chemoradi
skeleton
interfaces
chemokines
transloc
HRV
pitch
Symptoms
##ilience
symp
phosphatidylinositol
immunogenicity
Severity
##herapy
prere
LVEF
Pregnancy
##O1
incen
cryp
Combination
cared
staphyl
##atalytic
##apamil
write
##ete
##uge
catalysis
screws
yester
simplex
##esity
decarboxyl
rhiz
favorite
creature
Visit
##EMI
lifting
synapt
perturbation
solving
Fer
Top
immunologic
contaminants
##bur
agencies
Camp
PTEN
##inetic
##ureth
##eterm
radiologic
periphery
preclud
cornea
imagined
strictly
inheritance
consumer
flanking
formalin
Education
abrog
tocop
##haled
strands
shortened
divertic
##onephritis
dirt
entropy
reluct
##omatic
##IK
dextran
##BF
spun
Next
##ofrequency
Real
corpor
Eg
Tn
emergent
##itney
analogous
attained
midw
##omyces
Infection
radiography
FOX
approximation
##istence
Fin
F2
wrap
##rection
1a
bevacizumab
lists
oval
##ovi
nested
necro
galactose
metalloproteinase
amorph
encephalitis
trabecular
##tenosis
genotyped
##cephalus
vasculitis
##achlor
People
##inities
Unfortunately
Left
conformations
diseased
enteric
ordinary
organelles
microRNA
scanner
##agre
delirium
beams
##yse
searches
strip
Libr
ecl
Ultras
everywhere
dominance
reti
disposition
dizz
practitioner
carries
TL
fentanyl
transducer
reperto
clou
cryopres
Disorder
spending
postt
IK
titration
FK
keys
##irm
Rb
contractility
HSCT
breathed
technological
##ilia
BBB
calculating
encouraged
##oderma
aluminum
NADH
audi
Dr
tightened
##ein
prompted
Nan
portions
EQ
eyebrows
gad
Public
PPV
ischaemia
John
torque
chat
annually
Evaluate
moral
stair
CA1
##erson
##opathologic
yesterday
casein
##aran
overnight
inward
PHA
boost
Failure
dyes
##pine
foam
undersc
##herol
discharg
Platelet
##itr
smiles
subcutaneously
marks
Unit
antin
##operoxidase
suboptimal
homogeneity
Targ
Numerous
##elin
Register
testes
##iomy
distinguishing
##imide
##obia
osteogenic
EH
##icide
serotypes
##ucosal
transfusions
sixty
##relations
ghost
Phyl
Abnormal
##heast
abduc
dysphagia
godd
inactiv
##98
originated
medulla
potentiated
##omegalovirus
##DC
combines
parametric
platforms
##rolase
photosynthetic
wealth
Air
infancy
paral
gastroenter
anaemia
Instead
cooperative
bod
##chool
100
growled
presynaptic
Eighteen
nucleoside
gift
ESRD
oss
awk
semiconduc
Good
##mo
internalization
restrictions
ingredients
accelerate
##pecies
woke
##absorption
smallest
##X1
inexp
landed
Dig
signatures
capacities
##etheless
prince
digit
##oxon
josh
##tillation
cyclosporine
##oxib
morphologically
benzo
AAA
xenograft
violent
texture
##iterp
arab
newer
##ollen
approaching
awkward
Pretreatment
ya
##ulic
illumination
threonine
cart
Though
anxious
##omorphic
##arse
superfamily
guilt
arbit
minus
appetite
leukemic
##BR
##uronic
Tradition
AO
classify
##ophylline
elegans
Project
Regarding
parox
isometric
appearing
##oing
acetylation
isnt
thalass
ate
##axial
##izers
crops
Swedish
punct
##rote
QTc
CSA
stars
##abies
compares
bomb
irrigation
biased
electroencephal
Investigator
infiltrating
##iella
eNOS
microbiome
jamie
elemental
bicarbonate
teach
theta
retinoic
condensation
officer
inqu
##itability
CPR
##orated
mucus
adopt
##clerosis
bought
clenched
apolog
phenylalanine
##ucting
operate
DBS
transgene
plantar
VM
beauty
parasit
earliest
##hr
safer
Ham
hesitated
blame
##istering
PBMC
pharmacists
##rials
rDNA
thalamus
camer
corrid
A549
seropositive
VR
colored
gravity
Barr
Respiratory
##br
##con
ensemb
prostheses
##rologic
volt
Free
ileum
thromboembolism
microns
throwing
Skin
dies
vena
tips
##plicity
Animals
kick
increment
tape
microflu
subscale
haemorrhage
reactor
neurodevelop
spark
Mediterranean
##iro
lacked
nu
lightly
radioimmunoassay
wonderful
1R
hemodynamics
BNP
NHL
apt
Helicobacter
##ialdehyde
grating
RES
DU
discrimin
Rest
plaus
retest
lamp
opt
emerge
##eminal
contraceptives
Library
Mes
informative
##itonitis
contour
anions
##iner
province
sugars
disin
adjunct
Near
compositions
seminal
Cardiovascular
heated
##ubs
deleted
APA
##virus
claud
habitats
endometrium
##flammation
lifes
preparing
##adium
anaphyl
suggestions
##apsing
glomerul
nad
CD11
##rofen
##agues
##udi
buty
Disorders
aur
Loss
Minim
tibia
proposes
naloxone
holes
##romic
Ax
replicated
triphosphate
PCP
mandible
eliz
HGF
PAHs
initiatives
Aim
interne
homocysteine
midline
desperate
##onent
##raphic
triang
##ogeny
uncomplicated
emptying
endocarditis
##ieties
displaying
##onditioning
##ipt
expecting
postprandial
cab
osteoclast
##Ag
nest
butter
cT
Ste
moves
underl
analytic
conference
suspect
GER
redund
foster
##pir
##acks
constantly
VIII
##organization
wand
replicate
rhythms
exploited
ignore
genu
convenience
oxo
1A
succe
wise
scavenging
extends
rituximab
ozone
British
vehicles
##ticals
AVP
centrifugation
AFP
ethics
TU
inpatients
germination
electrons
tonic
fol
##pless
anisotropy
eut
slides
chuckled
##opid
indoor
WBC
##tilled
germline
rapamycin
sunlight
endocytosis
monos
Chlor
immortal
spastic
scars
movie
dragon
##ussion
nearest
flame
Place
acetab
##arachnoid
rost
GLUT
amorphous
branching
rectum
##oreceptors
bastard
Head
folds
Exercise
##othorax
disrupt
##esthesia
FE
gentamicin
approximate
##ocele
gemcitabine
##ypsin
sentinel
brac
##efined
EPA
excitement
pleased
justif
reply
OCD
setup
ted
##WS
defibr
Method
osteosarcoma
closest
##omotion
measles
probing
eager
crosslin
yan
jew
clarified
cyclooxygenase
vitreous
inexpensive
ciprofloxacin
CIN
##oto
coherent
Doc
isother
Medline
periv
flower
SAH
ovaries
p16
literacy
##azolam
Subsequent
FTIR
##psin
supplied
PAR
##omatosis
undergoes
dielectric
substitute
litter
diabetics
pouch
dozen
tatto
stabilizing
Cat
pon
pier
una
cash
rheumatic
Daily
attenuate
##illaries
inguinal
Measurement
Electron
##cm
hay
thread
Application
##reek
humidity
intramolecular
Vacc
residential
roughly
##ylic
AND
##ionucl
ib
fluorouracil
Tub
purity
##lofen
unac
##omm
DOX
viewing
choosing
##eated
rhod
instructed
personalized
flows
Rapid
ICH
completing
questioned
boyfriend
##berry
volumetric
##ogrel
marital
##ocarcinomas
unexplained
makers
tocopherol
arteriovenous
pneumococcal
charlie
glucocorticoids
sophistic
##fen
Obesity
claimed
##ectomies
Rhe
Urinary
implying
##isal
neurotrophic
##olith
CPT
Od
sucked
parenting
grafted
theyre
Sil
methane
spanning
##imab
silently
pole
Maximum
stakeholders
##arate
altitude
ataxia
trapping
##keting
elsewhere
##astatic
PARP
nanow
reactivation
couns
checking
##acute
instrumentation
psycho
smir
##ymethyl
Neuro
hiss
##emon
Press
telomere
autonom
prolapse
laminin
##osoma
erosion
mold
BRAF
lots
Arth
boss
##olys
technically
##atrol
sedimentation
arises
faded
Lo
regards
Dietary
clothing
radiologists
houses
diffus
attendance
crime
RNase
##hR
register
secreting
lacks
internet
detergent
demanding
##arring
Cas
hypn
adversely
landing
Gra
tagged
bifurc
menopause
troponin
esteem
upright
vibrational
##X2
weekend
##Pa
BRCA1
peers
constipation
judge
beds
sciatic
neighboring
orthopedic
streets
Hom
diethyl
rested
overestim
IH
hemolytic
profess
blur
##ophenyl
displaced
APO
gle
Do
calib
proteolysis
thrust
overp
incorrect
leafl
seedlings
AChE
multifact
sexy
anore
Fos
Enh
##veratrol
Alcohol
antiplatelet
##oplatin
MMS
frames
buildings
covalently
Lewis
TKA
harsh
##opril
hurried
Leishman
depolar
##neath
##rey
Centre
3T3
branched
##oxication
atrium
adrenaline
spo
puberty
consolidation
osteoblasts
##ION
##oliosis
linker
##TE
sway
##ilum
##cor
recycling
nodular
purple
BPA
lutein
solved
olive
##hew
Potential
desm
VII
##ALY
Nrf2
maximize
quenching
San
pups
opac
carbohydrates
spotted
##ancreatic
occasional
shaft
OK
##onad
affinities
choroidal
lect
thoroughly
##ushes
pedicle
##under
motone
##ptake
##omegaly
stepping
peritonitis
impuls
neurones
gastrectomy
RNAi
##bert
disadvantages
cheese
CD40
CPB
kyl
rage
##phan
##optic
##ogroup
thighs
NHS
DFS
PBS
parenchymal
Fed
vegetation
uncomfortable
Population
dragged
groaned
Linear
##udine
restenosis
##unched
msec
##rectile
##osperm
emily
bags
thymic
carc
cultivars
jac
spiritual
Mil
recre
sher
Elevated
buccal
##aceous
longest
colloidal
##elity
RM
welfare
Overex
molars
quantitation
plenty
##unctive
gliomas
oxy
biofilms
##istries
ESI
territory
resilience
Pacific
electrocardiogram
##Se
worker
upward
swept
lined
vinyl
adenylate
greg
monomers
humor
notable
##PG
seated
widened
Decre
refined
Lp
ensuring
##S1
Aden
DAP
##imurium
tetrahydro
calp
bay
declines
cytoskeletal
Nursing
IX
##activ
progeny
proteomics
fibrils
shallow
CCA
opportunistic
tensile
pulls
2a
##razine
dissip
jeff
nanotubes
ANP
taxonomic
harves
##oult
warming
robustness
cing
provinc
efficiencies
capillaries
Term
##aterial
methylene
##atisfaction
MUC
DVT
##ilton
coagul
##WH
##astically
fant
navigation
##opidogrel
official
Embase
suspensions
spik
uninfected
Preliminary
deprived
##atil
Whole
telomerase
robot
##ophores
norms
unpre
sonography
references
##race
ducts
committed
badly
durations
sarcoidosis
mammography
##kines
appreciate
inspiratory
awa
companies
symmetric
tetracycline
innervation
continuity
reoperation
##rastructure
conception
clearing
physiologically
phosphodies
##62
##algia
painting
monophosphate
distortion
##arf
corrob
Placebo
##peritoneally
adher
tilted
13C
##2a
Russ
citiz
drift
methylated
##gly
matters
intoxication
argument
imid
##forward
##bi
swear
virgin
##alg
intral
synchronous
eIF
tank
mounted
tracts
##assays
mitosis
microRNAs
SPSS
bree
PRP
exceed
cava
inverted
heels
versatile
threatened
##isson
Possible
mud
##litazone
35
primed
subarachnoid
##hesi
CCL
superc
phthal
anaesthe
primates
##69
papillomavirus
rifamp
T2D
archae
PCV
considers
##imil
stoichi
Work
Prom
curious
cobalt
lily
Dex
Structural
##itivities
insoluble
##etts
tomographic
Gauss
##xine
morphogenesis
stably
cauti
mangan
vegetable
savings
##obi
amphetamine
nationwide
Att
parap
##onc
##orum
Lapa
##ochlor
mineralization
Glyc
underneath
disaster
gras
argued
Lactobacillus
##hi
ureteral
moieties
enemy
Immunohistochemical
mm3
guanine
continuum
Objective
uniformly
grate
PAC
B6
sixth
fellow
Are
hydrocarbons
starvation
restaurant
hydrogels
##uates
silico
Water
##ecu
##imentin
intimate
conjugation
##afenib
BAC
puzz
Significantly
lysozyme
paw
##HRH
unfortunately
ARDS
##osm
UTR
arrested
sandwich
EBP
##oalveolar
##asted
##opoiesis
bariatric
##78
photographs
neurotoxicity
mechanically
shrink
rash
Complex
cous
##idad
pir
WC
capsules
noah
gum
docetaxel
pathogenicity
immunomodulatory
perip
ventilatory
bry
vox
sentence
squares
Clostrid
Student
television
ascorbic
stabilize
trigeminal
##afil
##plo
undifferentiated
ASC
##aicin
ther
county
##oplasm
##actone
##edipine
Mi
Older
wiped
##GO
##ocor
exciting
##athyroidism
dentist
##isa
ghrelin
Improvement
cultivated
snake
CGRP
Inclusion
tack
unconscious
EUS
seasons
neuroph
jug
versions
##lic
PTC
Ly
##anny
##observer
##jac
cofactor
freshly
frailty
oligonucleotides
hamm
witch
##avities
##irs
stir
dwelling
predisposition
RMS
##acetate
niche
Reduction
HRQoL
backed
##inic
Injury
parotid
hunting
guiding
diarrhoea
reform
mimicking
radionucl
Gi
interfacial
licens
Off
##centric
planes
intraperitoneally
interior
##4A
##odi
sphere
programming
propyl
coal
effluent
FAS
algin
dots
Ultrasound
##earman
##roportion
boot
##31
##idomide
SLC
myofib
##FP
##abeth
owners
poses
Virus
vinc
primitive
GDM
contacted
Sk
blo
symptomatology
washout
leukaemia
recognised
CD45
oesophageal
diamond
urot
Prevalence
Diseases
##terenol
dol
verapamil
Heter
sickle
##acia
##yseal
vitamins
##ynchron
Adults
discharges
crash
##unctional
fi
##gevity
psychopathology
iris
Continuous
##oproliferative
ups
triplet
ken
coastal
tolu
council
smears
utter
##ems
adaptations
carriage
fundus
Detection
confident
PAD
explanations
MALDI
##edicine
##angs
##ronchial
##vable
##atable
tracing
penile
shade
strips
##KY
Respons
alternating
##IG
##inar
deck
##aund
FG
##x2
infective
apex
Sol
Comparing
crap
##ammon
youve
##otaxis
missense
##cience
##Tc
MIP
MPa
multifactorial
Arter
EX
grant
convert
rescued
kHz
HRT
ORF
##rometry
alloy
##quilibrium
CU
elution
##49
broth
WA
gabri
##iximab
visually
bitter
##ulinum
IMP
pauc
transportation
RECIST
##best
##dynamic
Binding
##mother
olds
blanket
##urea
implicit
motions
equipped
erythroid
Az
Exc
##ropol
ABA
dawn
##ondialdehyde
editing
debris
##glut
escalation
microcirc
mentally
Systematic
dorm
##heresis
parity
##roids
##usting
extracorporeal
atropine
##issive
defer
dehydration
##bul
##Ig
scram
outgrowth
##elastic
ribonucle
bFGF
spores
descriptions
virulent
Overexpression
dare
##73
##get
##gest
jes
NET
evaluable
osteoblast
freshwater
Meta
supplies
frustration
Radiation
maturity
##athic
##ocomial
rigorous
##odext
enjoyed
irritation
anionic
interven
orch
##eptin
##enoid
pores
stressful
Neut
Moderate
dating
repetition
PAS
C18
##rase
horror
ns
adjustments
julian
raf
projected
goats
mining
hemangi
pockets
MHz
UP
beast
Spearman
civil
radiofrequency
repertoire
swollen
toe
L2
transpos
mucin
hyperth
##hol
H1N1
##fect
eyebrow
coronal
multin
intrig
##atism
##oproterenol
Pf
##ioid
##orescent
guest
Leg
dece
perpet
uniqu
chambers
rotavirus
##hospital
Training
suitability
somatosensory
pep
communicate
discrepancies
neurof
dispersal
fails
##oglycans
PCS
ECOG
##estin
cytomegalovirus
copolymer
leiomy
disappoin
##ronate
Prol
Mem
probabilities
bundles
directional
tough
cd
##51
##igo
##rophin
Stimulation
sew
duodenum
Rob
Complications
elevations
hypere
##ceptable
planet
elevator
Kingdom
##ilin
##ictory
transd
preschool
Simultaneous
##oms
glared
assesses
REM
THA
supervision
islands
NCT0
##VR
natal
rust
emulsion
lor
analgesics
supernatants
devastating
colleagues
holy
ESR
rT
ophthalmic
jared
sorption
brings
determinations
philos
deliveries
unsaturated
##arrhyth
residency
##ocus
##apatite
Key
carbam
manganese
EPO
appl
##armaceu
LBP
QTL
##lamydia
MSM
Auth
##cla
operatively
radiology
cannabin
prick
violet
proposal
##eller
chimer
proteinase
comprehension
PCL
monocyt
inclusive
pneumon
Kid
filtering
therapists
##romised
occult
alleviate
##aro
terminated
repaired
neurodegeneration
recognizing
##beit
##ucks
depths
tv
resum
barrel
Kle
ventilator
veterinary
Prin
reconstituted
CPAP
york
##rest
intentions
##rophyl
##oct
minimizing
justice
intercourse
Pos
sophisticated
##obut
50
##acycl
Kd
microf
chocol
unequ
revolution
manus
KS
inspection
disproportion
longevity
pericardial
##TT
##atit
photosens
todd
bedside
##1p
##bp
E3
veterans
Nutrition
spacer
autonomy
Less
antisera
##plicating
nanocomp
Mu
mannose
##ocic
deserve
Correlation
##idia
billion
proteome
CMR
Percent
HFD
poured
##ytherapy
KCl
##edullary
rubber
Leishmania
##ugs
readers
emphasizes
electromagnetic
quartile
##kal
cooking
##ietin
metac
##father
exacerbations
ip
amines
##oplasts
Ster
OX
##param
cele
flavonoids
narrowing
Conventional
Sequence
aids
ALA
Muscle
hyperthermia
restraint
##onates
struggled
ANC
flames
authorities
schedules
ridge
##icitis
##oultry
##ondii
carcinogenic
adenocarcinomas
hood
RFLP
inferred
william
Physicians
perturbations
That
lactose
NIR
##vertebral
fossa
monomeric
dith
Multic
##aminophen
Isra
##ounting
SSc
Phen
pK
peaked
Computed
aOR
ic
curved
aided
fired
lining
##emoral
##albumin
##attered
untrans
S2
Ra
kal
rocks
surprising
disclosed
cassie
Third
girlfriend
erythema
##essional
failing
invent
feather
prednisolone
christmas
episodic
cope
abruptly
torn
HSA
microbes
ileal
##ordan
execution
32
Sens
halluc
FMD
##ighed
lengthen
Danish
ulnar
PTX
chlorophyll
tether
fidelity
kisses
##NB
NV
RAP
Adequ
sniff
##philis
##entified
constrained
broil
opinions
bilaterally
steatosis
##atre
lucas
Glut
narrative
##retin
carboxylic
##health
neutralization
twitch
picking
psychotherapy
harboring
hypothe
resembling
salic
knot
##tz
export
acetonitrile
##istin
TiO2
Partial
grains
gauge
gases
bisphosph
bactericidal
latex
offset
ignoring
splitting
glutamic
beet
mutational
immunoblotting
frid
subf
Chemical
pissed
dendrites
Atl
sickness
Prostate
Univariate
Therapeutic
bla
printed
statistic
satur
##erents
cellul
committee
wedge
phosphatidylcholine
diploid
costly
biogenesis
manipulated
shame
requested
laur
posttraumatic
##iones
imposed
EI
multip
transparent
cavities
CD14
congru
standardised
hurry
hyperm
##rystall
##oste
richard
##C2
Longitudinal
##OV
uni
nut
##nam
Very
##itates
Gaussian
journey
CRS
iodide
TRH
dosages
nowhere
##agers
##osteric
colocal
concurrently
##hesus
french
english
resections
anastomotic
##otechnology
accent
##adone
alpha1
##life
lymphoblastic
volunteer
specificities
nails
controversy
sebas
unm
##ancers
Mini
bioc
Seventeen
SUV
sisters
##thrombotic
lux
##otr
##ava
##athecal
microfluidic
schist
twofold
meetings
##ealous
Glucose
##icos
harvest
chances
##olars
adiposity
advancement
dropping
##imumab
strokes
quantifying
##juana
1b
Cases
nc
R1
##itants
Poisson
Incidence
audit
##ipar
adver
prolifer
Derm
abl
carnitine
destabil
ROM
bacteremia
##roma
Almost
kylie
tucked
mans
hematocrit
##gus
aneu
supram
olivia
steadily
##enyl
ventilated
insult
consequent
predisposing
convergence
##olinium
matern
Comparative
telem
##gie
flora
groundwater
transitional
jesus
clopidogrel
locomotion
SAM
tubule
##orphin
##atally
glycosylated
##enet
HOMA
postmortem
exhaustion
MAT
smoked
##amphetamine
shedding
catalyzes
pover
floating
18F
nasopharyngeal
##aturation
regimes
QRS
Tumors
mastectomy
histocompatibility
STEMI
##enth
##CM
indole
##NI
Tur
##optotic
##awa
Pil
Genome
##GB
frown
Recomb
abandoned
remainder
apple
alongside
anthrac
Resid
Ontario
Vi
Veterans
ruptured
poultry
TMS
poverty
tacrolimus
forcing
trainees
bronchi
##DR
##NTR
vulgar
##ograp
cf
PCB
fulfilled
Tre
jaund
george
lessons
adduct
vicinity
##oselective
multimodal
smelled
##obuty
insignificant
emphys
luteal
consultations
diges
malondialdehyde
vagal
predictable
cathepsin
extrinsic
effectors
scoliosis
##acterium
favored
Rab
Leuk
##omain
Disability
masked
Crypt
Gastro
tinn
modulators
##gesia
clade
##cemia
##olipids
clouds
##inced
hamsters
fel
feces
inference
quercetin
purse
Rac
biases
Clostridium
GSK
ciliary
uveitis
heel
terrest
Intravenous
##uer
swift
filtered
lobes
##oposide
Hand
hint
guns
advancing
Monit
HAART
lambs
FB
porch
##CO
##imotor
bupivacaine
grid
thio
gating
oligomers
devoid
AFM
trick
Green
##otracheal
reprogram
odont
grasp
sooner
steep
H4
stems
##una
criminal
innocent
Pal
qRT
appointment
##operidol
jealous
pesticide
##arose
##azepine
sebastian
##acylglycerol
ivy
##jo
counselling
decid
facilitation
prin
##etent
uncon
##plac
youll
thromboembolic
hept
gaining
debrid
oedema
eukaryotes
##tific
GAP
Services
##agglutinin
tinnitus
warned
methan
homogenates
LTP
N1
##han
dividing
adds
primate
undergraduate
paternal
pie
##rawn
Pak
assured
ellip
catecholamine
optimizing
traced
##ycle
shelf
bridging
Mer
unsuccessful
destructive
anna
Impact
fibrotic
basket
Strateg
##1R
24h
##atized
##entre
VLDL
Myocardial
##k1
tuber
MEK
inches
##adin
harvesting
orthopaedic
capsaicin
paying
Ter
FX
occupation
ceft
orthog
##oly
sensitivities
hypop
discussing
reconstructions
monocytogenes
##B4
HSD
plausible
ending
christian
consecu
puff
WS
##idus
ranking
Hepatic
##imburs
mitigate
stub
anomalous
shrug
productive
nate
vimentin
Light
varieties
ideation
dict
excreted
dichro
discer
##YP
AAV
euth
##uded
exhausted
##iline
Cry
tie
##chemic
##titutional
endoscop
##entation
localize
chewing
statements
GABAergic
##hl
##DF
cirrhotic
nifedipine
augment
CD25
##idate
interests
mildly
dancing
hepatectomy
doubled
##phase
hydrocephalus
Likert
collar
dentate
##azo
##hu
lifespan
B12
acclim
ECMO
##ervated
anorexia
vasoconstriction
##acid
##Fe
arthroscopic
##kephal
incidences
##otecan
dyslipidemia
cited
reasoning
tuned
##istinguish
##tisone
##odys
quies
enth
sensed
Histologically
##leb
##ponsive
isab
Area
ew
vesicular
carboplatin
colors
predominance
inspired
fragile
nicotinic
##EDs
investment
Monitoring
upstairs
sprin
workload
INR
##oxal
##otocin
Healthcare
##ophor
##PSCs
##LL
Tox
tolerate
CIs
Computer
Strong
constituted
jane
Phil
##ximal
oligomer
neurogenesis
gastrin
brushing
DAS
##iaceae
football
Whitney
pile
privacy
globin
Novel
subcortical
isoproterenol
##umbling
sphe
FVC
grave
cingulate
gesture
##ACS
whites
interdisciplinary
centuries
paran
Acet
atri
nosocomial
Du
ja
discriminant
grandmother
Depend
neglected
gripped
##class
forebrain
hallmark
acne
collision
degrading
catast
##ulted
haemodynamic
exempl
honor
spikes
zyg
extensor
chocolate
confid
CXCR4
Nurses
hunger
reviewers
mimics
grief
lovely
##tinent
##racting
chicks
SIRT
CTA
##79
Hypertension
Chemotherapy
alginate
db
valvular
##arsal
collections
EPR
##vitamin
5D
##oping
chir
parked
transcriptom
mosquitoes
incap
##through
lumin
needles
insisted
##ophthal
mGlu
nematode
complained
descript
reinforced
MAS
modulator
##58
##iosity
methicillin
gondii
CCT
##000
visualize
federal
dihyd
##itizing
climbing
trypan
aneuploid
##roscopically
underestimated
Subst
##cedented
demons
##KA
Synt
ripped
##criptive
##ardiac
neglect
wards
Ber
salinity
attacked
##oge
hos
nanofib
blindness
Parents
##ocytoma
##VD
ARF
anchor
Injection
##oventricular
gorge
Asth
Surface
portable
Bacterial
agency
Metabolic
normative
nanostructures
biocompatibility
PCNA
##istinguishable
##itant
neutron
Neurop
CYP2C
autoradi
Ann
NAME
sid
TRAIL
jan
##apes
convinced
nt
subpopulation
##rals
cohes
CFTR
corridor
Phylogenetic
Rele
overwhelming
##istics
Surveillance
oroph
pleasant
dan
yolk
secretions
piglets
officers
unevent
flipped
VH
supplemental
player
glycolysis
polysaccharides
harmon
##odia
Tem
ridicul
restorations
galactosidase
NH2
##46
marry
##orphine
tess
##icit
inducer
MPA
Biom
econom
##oprote
Supplement
Province
boxes
NYHA
reader
outward
pluripotent
amyloidosis
OVA
99mTc
##odermal
IMT
ECT
hyperal
ticks
##radiol
bars
##west
##MAR
slowing
neighbour
FIT
##GC
adhesions
dor
ribosome
syphilis
possessing
permeation
##ibrio
clav
Observ
transaminase
tracks
damaging
##wid
vulgaris
##ogaster
##geons
Ho
nociceptive
conferred
##certained
castle
##endicular
##uprofen
Formula
shooting
ingested
gastritis
constituent
rhabd
elizabeth
Ken
albeit
##aliana
monster
##DA
referring
sutures
##acked
##ioc
topography
equine
bever
exhaled
pyridine
ecology
Cdc
intermolecular
intrahepatic
unprecedented
##peridone
Tel
##cholinesterase
##rat
cards
topology
reimburs
tells
synthes
aggregated
##clusal
##oded
peg
replacing
sleeve
##uffled
##level
##eptor
Republic
adjunctive
yard
impulse
##abain
detoxification
##foot
##aping
thalamic
neovascularization
thaliana
Gold
chromium
DMP
ts
##hand
hypercal
evac
temporally
invis
##pic
pter
afl
ascertained
Poor
Enterobacter
escaped
Hamilton
difficile
##RF
immunocompromised
2b
##umina
COS
##electro
autonomous
Sum
Dental
##CAP
serous
ligase
homozyg
counterp
evolve
##5A
complaint
sequentially
lncRNAs
snar
laying
harmonic
outper
Solid
consecutively
bioinformatics
prothrombin
needing
##onvuls
##ipramine
punch
CRIS
rounds
liquids
urgently
genomics
sake
##ometers
neurodevelopmental
RANK
palms
Altogether
unsu
cale
superiority
##estration
herd
restrictive
startled
preex
Guidelines
activators
rubbing
##ika
pine
kern
Plus
dissected
Norway
bubble
agarose
DMSO
cher
chitin
chemop
PrP
##ston
##HT
thrombolysis
gonadal
feat
##uv
linole
##ileptic
##ognition
Regional
##onge
toes
spectrometer
indistinguishable
nipple
connecting
Implications
gru
drank
FFA
pist
parv
microglial
naphth
##actions
hydrocarbon
mesothel
counteract
BPH
ejac
MCT
anticipation
County
zeta
retroperitoneal
practicing
##41
##hentic
##CO2
##ratory
Adequate
collapsed
princess
##tizing
TUN
resveratrol
##ailand
prerequisite
Nuclear
##bel
MPO
estrogens
pyrene
##uling
polyphen
ulceration
resemble
uncover
arrangements
nephrot
xenografts
deer
##okeratin
##essel
infarc
Days
repressor
calcitonin
thrown
transcranial
H7
Pneum
infrastructure
ALK
##ormally
##vitreal
multifunctional
eosinophilic
LAD
liam
dipole
##osphere
##entine
CW
farther
##electron
##unsaturated
neuropeptide
Environmental
##estock
impairs
amenable
blew
Tor
ordering
glandular
discs
blake
multifocal
attempting
click
Successful
conting
##articles
eliminating
##bu
weighing
##ractable
sensorimotor
##ysmal
trophic
whee
##otoxins
BMT
straightforward
sigmoid
jace
farmers
trent
rendered
encl
depress
##apular
granulosa
contig
eccentric
tony
afferents
clonidine
tan
hypothetical
chaperone
sts
creatures
partitioning
##enda
mutagenic
IMRT
honestly
yog
##tie
wax
reserved
tricuspid
ACR
prohib
PBMCs
cores
diurnal
##encl
chairs
IPV
receptive
compensate
karyotype
therapist
NN
marijuana
sting
sixteen
Cri
##dU
##olus
wow
##ocys
##othi
##x1
##itabine
Ven
visiting
neurogenic
clue
psychiatry
PY
perpendicular
Swiss
##osc
walks
incub
insert
##amides
reticul
prokary
gathering
arbitrary
GPCR
methyltransferase
TUNEL
##rogenesis
autoimmunity
##noea
advertis
##ML
ORs
Pit
AIS
fractionated
##anta
american
utero
sibling
Mexican
celiac
Epstein
qualified
patterning
readings
lever
suite
classroom
ensemble
nationally
oligosaccharides
frameworks
diluted
Endoscopic
happiness
##othiaz
##fted
glucan
##nee
trav
voc
##entanil
desensitization
Versus
schizophrenic
leishman
##oning
##ught
1D
##trig
Nigeria
##titutes
##MSCs
Internal
tends
Dynamic
CPP
intraepithelial
Nineteen
sank
epithelia
tubal
beta2
microin
dichroism
##72
advantageous
22
metam
jaundice
implantable
drives
calorimetry
Sep
etoposide
creates
folic
Diabetic
coordinates
carbonate
aggress
paucity
wavelengths
topological
dynamical
actu
appendicitis
capsular
waking
##ifl
methadone
CLA
enteral
##ractor
acetabular
bark
NL
goat
intracerebral
##ifers
supervised
FGFR
senses
trach
legislation
##cha
decarboxylase
renewal
interconn
antagonism
jugular
##AN
##FF
##emias
handsome
realization
philosoph
Gle
biore
refers
gangli
##olute
##TC
Gh
Toler
assistant
grounds
Last
strike
roughness
Well
PDA
joining
erectile
utilizes
seventy
stranger
sean
objectively
PFC
delicate
Behavioral
haloperidol
neurocognitive
terrestrial
glare
capsid
CREB
acetaminophen
manager
professor
Infants
helpless
infrequent
brachytherapy
flour
contr
Cron
##ineral
##omn
froze
##ounce
Peak
uncou
pean
NCI
Sah
H3K
betray
morbidities
tremend
cotrans
trough
SRS
ranked
riding
inverteb
marketing
CON
deformities
##osel
connor
##encia
glancing
lactamase
ribose
tubercul
presently
algae
##uster
##anging
pounding
Plant
Until
ral
nonh
GERD
##emide
HN
navig
##kins
horrible
##lyn
##iomas
confers
##emis
morphometric
cruciate
solute
##urition
Comparisons
misdiagn
sorb
##gian
##oxazole
anaesthetic
Greater
chloroplast
histi
julia
thiaz
bradyc
ruled
infiltrate
##157
sund
SGA
Background
##AE
##rystals
labels
##antile
Gln
receipt
##com
abrogated
afforded
vigorous
tyros
repressed
reconstructive
Influ
##arded
myo
##ygl
VEGFR
SQ
operon
4th
Qualitative
Kidney
Aer
AMPA
GBS
weighed
##ogle
midazolam
priorities
secrete
##ivocal
deployment
electrospray
spons
oblique
##onergic
HSC
Students
LAS
climb
##phy
##ispens
##opram
##redict
resembled
situated
semin
psychology
underpin
grabbing
verification
Acid
fork
ANG
DRG
##cens
meiotic
cracked
authentic
absorbance
districts
Rheum
bradykinin
melanogaster
neat
MAO
scru
fluxes
##arians
##top
fellows
##urrence
imaged
HNS
erythropoietin
Respond
nanoscale
spong
syncy
##P4
maneuver
##aec
fog
QALY
stal
dread
mirr
DSS
attraction
PRO
livestock
cardio
##worth
cheer
##apenem
theophylline
biophysical
originate
latencies
##oviruses
##yrid
Spinal
uncovered
B3
pharyngeal
##umber
seemingly
##B3
debridement
stance
paths
refuge
crystallization
##oluminescence
spinning
gob
compass
SMC
stumbled
antipsychotics
##urt
chemotactic
allografts
Island
Gel
##isure
wil
Ile
##fly
##nem
explants
##tiveness
erythromycin
trifluor
Without
diazepam
nevertheless
##aki
Natural
##inone
scatter
ai
quarters
heaven
##rosy
eyelid
trachea
##okers
preventable
L3
modular
Th17
##odeoxy
embryogenesis
inbred
Rev
grateful
nods
myof
##ovol
locking
Tet
##ozotocin
anchored
Taking
Likewise
Centers
Scores
advis
interruption
V1
conjunctival
ewes
appreciated
pem
pertinent
##acking
nigra
alf
implication
GFAP
unfolding
zym
breeds
metabolized
##imm
Fus
Regression
cyclop
##FR
emphysema
rho
facts
GMP
guilty
linearity
won
otitis
ting
occluded
trembling
biodiversity
##wa
soldier
nonsm
hyperinsulin
EDS
##iche
paint
##FE
mP
neuropsychiatric
engaging
prur
Descriptive
anticoagulants
stunned
##OLD
Concentrations
##arone
Immuno
##dered
assimil
STI
KT
##BP1
tachy
Cerebral
rhesus
##olia
##BE
Swit
keeps
immunogenic
Effective
layered
##ozapine
indigenous
announced
comparatively
Mild
##gative
##opsin
##incing
prion
flexor
unacceptable
Asthma
deuter
defence
hydroxyt
HEK
facile
Motor
advised
shakes
##aban
lytic
SSR
##imilar
polyunsaturated
intercal
shares
unmet
heroin
ADR
bout
closet
fists
Recomm
##etitive
HRP
##iters
obstacles
Hel
Repeated
hyperpar
##ropolitan
synchronization
##isations
relates
phagocytic
cet
##usal
authority
cytometric
kPa
atrioventricular
##icine
Late
chemotaxis
eld
wrink
metat
##oresp
arose
declared
dug
imperative
pillow
##terone
dephosph
eighteen
sterilization
Mb
unidentified
##kinje
Thailand
photosynthesis
pineal
sciences
basolateral
vasodilation
TAP
pT
harbor
numb
##UD
subacute
Tryp
subl
bend
rol
uniquely
Practice
##odextrin
##p1
plasmon
allosteric
educated
Immedi
barley
antinocic
Dif
birthday
richness
Mitochond
Intensive
##ATP
UTI
mountains
##uresis
reorganization
CBCT
Recombinant
##ville
urgency
Schwann
expectation
##eprazole
interneurons
culturally
redistribution
unresectable
Purkinje
##erally
loudly
rods
FO
##odipine
##oxyp
##ho
anticonvuls
TO
##win
Don
##arith
probiotic
circumfer
reared
idiot
overs
occlusal
ribs
thyroxine
aa
gym
##ami
temple
encapsulation
SCN
UVB
mant
##oving
unwilling
grandfather
infectivity
EST
curtain
isoelectric
##oconversion
pride
hetero
Stat
deacetyl
phosphodiesterase
##oplasia
##recogn
chorionic
dipl
##enone
##aponic
ALD
##52
MRS
decompens
##pharose
cargo
sponge
synovi
threats
CNV
STZ
incidental
solids
ses
spiked
awful
antiproliferative
addic
Intrac
hugged
buffered
##his
##igan
declining
cheap
HRQOL
relapses
##itoneum
withdrawn
strategic
balls
##esophag
##oxins
payment
cytological
nucleation
##marin
##za
bullet
##oplasma
translate
##unts
2R
standardization
torsion
myopia
integrative
junior
packaging
mAbs
flowering
imatinib
aldehyde
Fat
##epileptic
desert
Conclusion
Condition
##uclein
MBP
catecholamines
##hou
fourteen
trimethyl
residing
eddie
##etan
stereotactic
Cost
Klebs
topois
Cult
##loe
UDP
##ylobacter
initiative
associates
##atility
headaches
genotoxic
Ib
GPI
cTn
burd
iterative
hepatoma
Ze
dentists
COD
pretend
doubling
carotene
transfers
UL
machines
##tex
answering
Har
steroidal
somebody
##ostat
##Hs
##ineural
bridges
overlooked
chym
lysosomes
##avirin
thirteen
##othy
Sea
breaths
outdoor
assault
caudate
Methyl
Nd
reven
5th
motivated
migratory
wasting
damned
Pg
Han
remodelling
stops
Rever
centrom
tensor
delineate
teg
Amb
##etom
substituents
2H
aesthetic
alkaloids
Toll
##ragmatic
bcl
##RCC
justified
pub
compressive
unpredict
##usias
seq
pear
##bens
nonf
nik
Council
Females
outlines
tactile
##yll
tar
dumb
occlusive
fury
governing
ouabain
towel
L5
vegetative
celeb
unra
valence
desperately
Wall
expense
##inescent
antagonistic
diat
stricture
CRISPR
##omeres
G6
assurance
p27
##562
##mate
radiolabeled
##days
Gluc
Hemat
##ylephrine
biggest
XRD
photoreceptor
##olymers
vice
Laparoscopic
##arous
bunch
mere
##orphic
zip
##atisfactory
##tegration
VAT
glomerulonephritis
clues
Tex
fus
##lan
warrior
Schiz
##aturity
funded
##ucker
disposal
##claimed
STS
intrathecal
alcohols
disciplines
craving
Actin
Responses
immersion
sulfide
invisible
inclusions
swabs
elasticity
purine
manually
kinematics
PCBs
lingu
pharmacology
zo
workshop
riley
inotropic
asbest
bronchoalveolar
participates
##ipolar
Ia
drow
metron
Vmax
encounters
##aka
Independent
barn
CTC
lax
Ent
Que
grac
##omib
VPA
hazardous
1B
##ellate
##ald
isoflurane
recalled
scarring
Klebsiella
strengthening
compensated
Wa
burnout
##ospasm
CTX
bursts
enjoying
hopefully
devised
risky
secrets
##apoptotic
##voflurane
disparity
breasts
relapsing
##lock
indispens
passenger
shrinkage
immunoglobulins
wrote
gav
##osurgery
euthan
HK
Ple
##igned
fistulas
##rogl
eighty
A3
gorgeous
skilled
serotonergic
sof
cres
SAR
Knee
ancestral
##rice
##ECs
Wilc
benzodiazepine
reflexes
dilem
ionizing
##var
lethality
hemostasis
filamentous
mia
joke
phi
Burk
abby
hampered
ak
lncRNA
intranasal
##iliar
##ocyanate
Denmark
flowing
STR
coatings
IgG1
##ustion
DWI
holid
etiologies
paradigms
helices
##can
DOPA
atres
intractable
slit
##pletely
PLGA
dissociated
##ositi
energetic
##arrhythmic
##iplatin
##ublished
##arabine
tugged
mont
alph
jumping
CNT
##kephalin
tense
TRP
eluting
trast
KRAS
analyte
myx
Full
##amphen
ATCC
reconstitution
vib
##teries
Biological
Resistance
hydroxyapatite
##zy
Biol
##walk
##otom
nort
taurine
bowl
homeless
ERP
rog
##elvic
Interleukin
contraindications
abiotic
russ
sip
##roch
ampicillin
pharmacotherapy
##BNP
daddy
Hepat
Concomit
suction
Jour
herbiv
Pressure
##rypt
squared
acetone
rotator
fertile
##ogs
perceive
lil
racing
arabin
Gleason
PPD
##adays
japonic
##erals
clotting
cytokeratin
Myel
Om
forgive
leisure
elongated
Animal
arrive
microarrays
antagonized
GlcNAc
ille
##cycl
##apillary
constriction
##ulph
myrist
##irled
##ropin
brill
screens
photos
Cronbach
Like
##amphenicol
Death
loving
exagger
GN
maintains
checklist
##BCL
insem
osmol
syncope
publicly
H5
##ecia
##adine
##hist
emitting
hypercholesterolemia
sarcomas
##timulated
##HI
##iteal
##no
##irts
explicitly
downstairs
catching
##riceps
substantia
Rhod
##atrogenic
groove
struggling
##system
SCID
cholera
##beat
untranslated
SCT
binge
biting
neurite
vanished
labile
##inite
lignin
Instr
parkinson
subsp
HBe
shaping
##ammonium
DSA
realizing
repeatability
digested
referrals
##avian
incidents
certainty
##FV
enthusias
hairpin
Traditional
ameliorated
grav
caloric
beverages
##imid
defend
millions
Mt
Access
drum
paralleled
pancreat
##NCL
C3H
breeze
thymocytes
kJ
RL
aromatase
Asc
CD13
bioassay
averaging
injecting
##enzae
arres
##xin
##ferases
disclosure
##epid
biosensor
comments
TRPV
horizon
Task
worms
speciation
##aryl
delight
spatiotemporal
preca
ridiculous
resembles
##enh
peptic
mannitol
##enedi
PIC
popl
companion
informal
HNSCC
Flor
quadr
Strain
nephritis
stratum
peered
reviewing
epiph
transformations
##71
hyperparathyroidism
orthogonal
Expl
succinate
andrew
reproduce
citizens
brack
##imetic
speeds
centi
computation
Immunohistochemistry
hydrophob
##oris
whoever
##ficially
tower
MMPs
##idi
Support
##terolateral
gw
cruzi
hydrodynamic
abscesses
inflamed
calibrated
p65
hardware
ibuprofen
multidimensional
pherom
mimicked
Hong
dans
forests
##olaryng
##ristine
reu
thalassemia
distorted
abn
ti
pairing
Wilcoxon
##ING
##ima
bean
Reduced
Detailed
kim
drifted
streptozotocin
Rates
absorp
logarith
##CI
Smoking
sell
footst
passion
##otericin
Particular
electrophys
MMC
Asn
Util
precaution
negoti
synuclein
downward
atresia
tore
traction
##obutyric
interl
coenzyme
##yzed
infest
##retory
Equ
##orem
voxel
gabriel
deals
worsened
Participation
rostral
drastically
concomitantly
forsk
etiological
melanomas
pumps
interpreting
workforce
artifact
tendons
CBD
Fluor
elite
adequacy
dismiss
G3
Recovery
synapse
mesang
microstructure
popped
struggle
KL
trout
##istant
Turkey
concl
owned
zoon
ceramide
introduces
Brief
SVR
##ylan
squir
wrists
Los
curse
pigmented
Gastric
POP
dates
anhyd
##KD
##words
##april
derek
villages
Atlantic
societies
##iliation
hemolysis
urothelial
Magn
toluene
flatten
RBCs
##aut
visu
astrocyt
nonsense
nonun
computing
coarse
elastase
##icago
spider
acrom
flare
Inflammatory
Param
predator
endo
homologue
##backs
Calcium
recoveries
brows
pertaining
##itories
mortal
ortholog
reticular
hydroxide
catabolism
connect
CYP3A4
hissed
hydroxylation
EMS
reasonably
MSI
transduced
eclampsia
chew
dal
Dev
overhead
denervation
Check
arched
GTPase
devoted
retarded
bifurcation
Agg
hypoglyc
PCT
ferric
adipocyte
Sert
epist
protons
halfway
mush
TX
Isolated
Tb
skirt
trac
pM
locate
##etting
equilib
fulfill
##rict
dick
disabled
##reth
Ur
confirmatory
WKY
painted
##acetamol
Unc
friction
recap
stations
breakthrough
MMR
impressive
60
Scot
Fil
##tles
coma
oldest
pant
##Ab
pleth
Cmax
triage
factorial
##97
kend
remembering
thyrot
##hole
logic
IRS
marsh
cadaveric
rode
MMSE
RFA
##oxylin
##width
bradycardia
Home
canals
MPS
drinkers
peroxisome
Half
Arterial
powered
impati
##oston
lump
Sexual
35S
ink
stall
##uzzy
Viet
wavegu
HEV
##iated
dermis
plei
APS
axes
restoring
Status
categorical
equivalents
Middle
syng
circles
##ivided
granulomatous
Ery
Lang
forskolin
IgG4
B7
fluoro
immunocytochemistry
Sepharose
macromolecules
exosomes
##DCS
staged
registries
##heastern
armed
##AT1
##ecoxib
monoxide
##rists
autumn
gear
UGT
corros
patellar
ladies
Spontaneous
eV
##uctal
ameliorate
adhere
ric
oxalate
london
UI
eaten
Portug
##eles
multicentre
Tu
entre
guarantee
alright
tern
##fection
illicit
mobil
2B
unfolded
##oni
accomplish
##illes
herds
purely
elementary
OG
sara
##F3
indispensable
pS
##oons
formaldehyde
surfactants
Measures
##DV
hardness
##2B
hydrolys
unem
unal
Saudi
radiosens
consume
paroxysmal
vasoactive
YAG
convergent
##aptive
LU
collagenase
reproduced
mitogenic
##osecond
ourselves
terrified
##adex
##uconazole
##ethanolamine
alcoholism
engraft
##rops
inhabitants
templates
TAC
Having
opiate
accumulating
TNM
hydrolase
pumping
intravitreal
##iders
tetanus
Concer
##oen
Gyn
newsp
##amiliar
transposition
##birth
##oman
fluctuation
##gulation
cute
granulocytes
infect
voltamm
Wiley
##arius
Oxid
Ts
loosening
##isco
##add
morgan
practiced
fove
##ymic
unwanted
uneventful
Modified
ferment
extraord
infertile
##yan
compatibility
##achol
incorporates
warrants
Clinicians
##olymph
##ortium
K562
yanked
##immune
##aca
website
affection
preconditioning
innovation
##omogene
jobs
preexisting
rises
anesthetics
immigrants
cram
##odine
##yler
hapt
spermatogenesis
TIA
phenylephrine
craniofacial
preinc
Tax
diode
exacerbated
accumbens
Brown
blink
chloe
##ytoin
TCM
tunable
dizziness
##ovalent
ESBL
##astin
postc
assemblies
##glyc
guardian
convince
monoc
##ostr
observing
##tices
##inium
Sciences
##esia
interacted
##oagulation
Saharan
kits
##tail
noncoding
##opeptidase
RIA
##osomiasis
##erged
inconclusive
Der
Lin
##jecting
oscillatory
feared
rhythmic
TiO
Determine
pyrrol
defibrill
gadolinium
cancerous
##child
backgrounds
manuscript
##kinase
##uridine
Ger
##rp
reacting
contributor
awak
CD20
##orvastatin
sealed
leukotri
influenzae
London
footprin
hunt
##onatal
CAC
##kinesia
##3a
Pen
biochemistry
administering
prodrug
##etomidine
##omon
twist
ECs
paracrine
inacc
##itz
paste
rope
physiotherapy
radiol
##ithiasis
##chicine
echoed
gage
audience
Multivariable
Trypan
phyto
orientations
thoracotomy
##arenal
##legia
responds
gazed
tapped
motivational
##oretin
##sulf
##eliness
##articular
##WL
werew
Cur
Diss
##chair
##pithelial
seldom
unrecogn
##ouses
TP53
dwarf
snap
Fluorescence
PC12
kne
annotation
myomet
Lister
Beta
conflu
counterpart
specification
dinit
THP
wires
embarrassed
bon
##rophosph
occupancy
descent
discriminating
##ruit
creep
cylindrical
##aval
probabil
drained
tut
degrade
midbrain
fears
straightened
arguments
jay
marginally
cDNAs
pee
compulsive
##haw
multist
##idis
chill
##burn
valley
incompletely
Nico
gig
premenopausal
Much
OSCC
##rehensive
lied
spacing
EIA
retrovir
cascades
BrdU
endonuclease
traps
Interventions
economy
empower
dish
##burg
glowing
rabies
endotracheal
cousin
retinol
##tigo
Malays
##FI
##utrient
exposing
eluted
ESCC
supplementary
ERCP
Liter
champ
housed
Associations
specially
mcg
binocular
##pos
supers
larynx
macroc
##iser
Kong
devil
Joint
##oda
NOD
enem
deceased
shr
Willing
relieve
likes
stays
ascribed
abnormally
hens
gloves
educators
vigil
Fram
unexpectedly
garage
##odynam
clip
superimp
2C
##ecrosis
GIST
blonde
explosion
squeeze
##x10
evap
licked
##mitters
amber
cavernous
Induction
synergistically
ABP
##opecia
Region
semiconductor
##akary
interrog
##abdominal
gambling
##igand
Congen
DRB1
Nearly
dimeric
SCLC
ISO
junctional
ventricles
sialic
ambul
Nonetheless
Arch
reuptake
jose
trastuzumab
VDR
##tiometry
##ropic
CPA
marcus
footsteps
EAE
hitting
coexistence
sacrifice
snorted
nanomaterials
##tistic
hydra
trusted
pills
sta
elucidation
##onasal
raced
industries
31
encompassing
##epsin
scarc
ugly
glycosamin
##dehyd
Sodium
cephalospor
retroviral
##kappa
skew
##fit
disagre
contrasting
##owing
submucosal
necrotizing
desp
vertebrae
retraction
##ocyanin
cocc
commonest
apoE
chloroquine
##allic
pedig
##ticle
Selective
thyroidectomy
unaltered
subfamily
RU
unaw
carved
topoisomerase
Mont
IO
jacob
tremendous
Extensive
Fran
##yly
separating
acetyltransferase
L4
biodegradable
spore
asbestos
overdose
acknowledged
porphyrin
Beck
sonographic
Participant
clozapine
gins
alien
sofa
symmetrical
pacient
##encer
mortem
paced
Journal
TMD
alpha2
IAP
SAS
Blind
judgments
##revalence
##iced
Turk
Vietnam
mole
ninety
spheres
##olase
neurotransmission
eve
Seph
Hum
##anter
allergies
reapp
ecz
Kv
32P
valpro
rigidity
intu
compartmental
##acies
##andra
##asin
porosity
##road
Campylobacter
##ometrically
shopping
hrs
Sertoli
##othane
##opropyl
TMP
lan
##61
Pancreatic
denaturation
##oinositi
Step
##LM
tert
reads
pages
alley
RAD
catalyze
bloodstream
uro
migrate
Laser
pneumothorax
Board
doping
victoria
analyzer
##urethral
minerals
genotypic
barb
##hend
Biochemical
##meth
PTP
ATG
##abeled
DSC
antiepileptic
Absolute
imagery
soc
Lear
liposome
##orus
##tled
mars
debil
erection
Behavior
permeable
Design
matches
choroid
ovariectomized
exchanged
heightened
GATA
pector
##rected
spare
mile
behave
##vert
mex
glutam
recognizes
lichen
saphen
jejunum
Cellular
singleton
logical
KA
chemilum
Now
IIb
elaborate
Rate
iatrogenic
bothered
reprogramming
Analy
Lake
hits
pressor
intima
invariant
detective
Combining
##imethyl
##opos
##NCLUS
oxygenase
Mother
physics
sectors
TBA
attenuates
##ovar
osteomyelitis
Recurrent
##anyl
chloramphenicol
esterase
peanut
##annel
ICS
Accum
gues
proceeds
##ieu
LOD
SER
LPA
##ofemoral
##orptive
leprosy
IUD
##4a
distracted
ultraf
agriculture
sevoflurane
Gran
wounded
recreational
stains
obscure
##vaginal
TCA
dow
chord
##acea
agitation
Optim
##onide
MSA
diversion
tol
hyperb
myofibrob
instillation
##istein
outlet
Agency
##atergic
rejected
GDP
##rosome
mediation
nAC
tray
SST
histochemical
kingdom
fan
T1D
unravel
manipulations
##onation
neurosurgical
rectus
insertions
tenderness
##plicates
sounding
covariance
mediastin
centrally
tDCS
ADL
oesophag
reflectance
fox
diaz
##asthen
tracked
discipline
blastocyst
Union
##erie
##lea
##uretics
##took
accordingly
accommodate
Rot
##KO
Bor
##ml
inventory
dimerization
##odopa
NASH
remnant
provinces
stature
##ventive
sewage
contraindication
supramolecular
##Me
refuse
diphosphate
debated
DIC
reimbursement
##inine
##oxicillin
finds
##osterol
lind
uncertainties
refinement
duck
neurole
numerically
rounded
streams
exped
nanor
MICs
##fin
TSP
momentum
Arc
abstracts
dystonia
societal
defensive
##iginal
crush
speculate
invasiveness
##tists
persists
proceeded
Tf
mec
##anthine
whist
Trauma
voiding
##uronal
##ithine
OVX
reception
splenectomy
##rem
EC50
##ESS
seeded
defl
polycystic
fasted
arsen
synchronized
rotating
Contrary
ascorbate
assemble
poster
hypoplasia
electrically
Found
##onegative
birthweight
##iry
furthermore
banding
PROM
positional
##brand
rhabdomy
casting
##rowing
mushroom
EPI
lightning
Sample
launched
Ana
robert
##bows
tattoo
##anat
fiss
occlud
botulinum
Star
hsp
orthotopic
sustainability
melt
prostaglandins
autoreg
regressions
Lipid
##otonic
simulating
##PSC
Iron
PRA
anatom
fits
certified
steve
Congenital
disrupting
accidental
empirically
##bon
##aky
homeostatic
quadriceps
lur
everybody
royal
hatch
lod
smith
pathogenetic
DAT
cryo
conflicts
##ourished
##eletion
unpredictable
spill
bronchodil
##1A1
ribavirin
dysfunctional
etiologic
precious
mumbled
mesangial
MRA
Immune
bore
lighting
aminoglyc
Eye
##ifiers
gluten
TNFalpha
oscillation
infantile
president
draining
acetylcholinesterase
##fluoro
serology
##exual
pyrimidine
##I2
THC
deadly
trimeth
Fig
nonm
SSA
##iparous
polymorphonuclear
environmentally
tetr
graduate
durable
exaggerated
flip
Tregs
DW
proBNP
exceptional
##p2
##olization
licensed
render
pectoris
descriptors
Depending
##ormone
metalloproteinases
Vibrio
engraftment
Metastatic
neurotoxic
exploit
thromboxane
tad
clinicopathologic
frightened
ladder
endors
miscar
dining
##etron
##ignment
gout
##otax
##low
Must
intriguing
cin
O157
gastroesophageal
##amid
witnessed
##ocystis
Rat
singing
glycans
inequalities
##ominant
modifiable
generator
traveling
##radi
hyperlipidemia
socially
##aris
jax
oestrogen
UF
digoxin
##mu
##yryl
pubertal
androgens
rC
Sj
DPP
Proced
MLC
##tii
followup
shortage
Events
representatives
##coplasma
##ateness
discern
whispers
Related
##rography
deciding
bromo
bib
Alter
biomaterials
##lotte
Block
puts
silly
eased
sock
##del
quiescent
photod
Prob
pige
bee
SSI
##AP1
dialys
leaflet
##omatis
##romatic
amphiph
correspondence
anisotropic
rater
unemploy
pest
21
genuine
osteoporotic
theme
credit
bored
disabling
pursuit
trophoblast
sadness
Cyp
opposing
##MG
heterozygosity
Recommend
Gli
SSC
compete
CINA
thematic
90
hyperthyroidism
##ryonic
haw
##anase
maggie
##A4
monoph
defines
yrs
RANKL
##plate
##dehydes
##phi
reconstruct
cliff
asparag
diuretic
Univers
counties
##600
##iceal
ClinicalT
hyperv
##ocalcin
##obium
Cooperative
nud
ternary
absorptiometry
##osupp
##atoxin
fascia
##87
flor
pupil
jere
speakers
auxin
Plat
bioactivity
##85
frail
##ortez
osteoclasts
gestured
QDs
divalent
infiltrates
caleb
##yline
cens
Being
Limited
crosses
TMA
additives
distinctly
oncological
lucy
##cessing
##nisolone
obstacle
IPF
chemoradiotherapy
havent
Neonatal
epile
meter
guessed
rTMS
gay
sees
dean
hyperalgesia
DHEA
##nm
curiosity
40
subdivided
extrusion
illumin
midnight
genders
comprehensively
slapped
##engers
mucinous
##osulf
pulsatile
##rolina
##ova
Incubation
CDI
pend
HHV
preclude
Vir
oxides
luminescence
Glas
microcirculation
radiograph
ACP
proxy
fluoxetine
GCS
extern
steam
nathan
Auto
radionuclide
grinning
retaining
##ectoral
PCD
##GTT
sacral
mattress
##lessness
attract
heterosexual
billy
##hesiologists
pyel
seaw
lobectomy
##64
##annabin
Optimal
ultrastructure
##otherapies
pyrophosph
punishment
amphotericin
Finland
benzodiazepines
eventual
##ulence
Add
##GG
martin
universe
justify
cler
sinuses
HMGB1
DXA
chaos
##eneic
##zerland
cyclohex
Attention
airborne
nephrotic
##uro
codons
lamellar
##gut
##icides
##gow
indol
Fac
##Co
TMJ
xenob
Microb
MAb
promptly
DMD
##ULT
soleus
pharmacist
operators
scrutin
glutamyl
mall
##gun
cytologic
gynecologic
CINAHL
sore
sterol
Diet
solubilized
brad
6J
##inging
bottles
lipophilic
pounds
##ulting
classifier
constraint
45
printing
sucking
brilliant
##oate
inhomogene
##EK
tones
DLBCL
trisomy
shin
Oxygen
SNR
knocking
DCM
##itch
carcass
climatic
CONCLUS
brick
transmitter
##yglucose
Caco
monoamine
##reland
Differential
rut
##pm
ISS
##sthoracic
##f1
cassette
leishmaniasis
toxicological
subtraction
blacks
sustaining
acidification
##alis
##okinin
morphogenetic
CTCA
Max
versa
chondro
Tat
neurotransmitters
biceps
lumb
Adip
SLN
##C3
Image
maxill
Carcin
Serial
Fall
caesarean
Urine
##tick
DTPA
pigmentation
guests
allyl
linoleic
##missions
semiqu
titres
##okinetics
Michael
pathologically
census
qualities
vow
MTD
##GN
##odeox
cubic
attainment
assure
Israel
throb
carbapenem
ITP
cuts
aper
##arted
glutamatergic
emphasizing
epicardial
metaplasia
posed
sou
##falls
cruel
affiliated
ACA
Chlamydia
glomeruli
hero
nonster
Poland
antiarrhythmic
TCP
EHR
dysfunctions
chemopre
hydrophobicity
ships
contempl
##D6
ClinicalTrials
##reen
##feron
convey
##yb
##tips
acinar
UN
psoriatic
competency
loves
Concurrent
benefici
stew
Antibodies
das
##oflav
##vor
beings
enantiomers
Bra
Mad
landmarks
fibro
oligo
enthal
##enafil
Anth
slaughter
##oprotection
burg
##quinone
Erb
HCMV
anonymous
DEX
Fetal
Frequency
Protocol
##ponsiveness
basically
Initially
TTP
##permic
vacuoles
unple
cyanide
##ums
atrophic
scavenger
##MPs
Anat
Tod
Streptomyces
traces
permission
holly
WR
##yne
megakary
appraisal
tetrap
embrace
##anthin
releases
teasing
typhimurium
photonic
vasodilator
cleaned
trachomatis
##apeptide
androst
fuzzy
##ocutaneous
wrapping
formulas
##rimal
fake
haematological
##artz
wolves
ERG
##olones
Abdominal
oxaliplatin
phylogeny
P2X
louder
drap
foramen
SPA
spines
charles
##dor
aler
##cast
##oresistance
Generally
Comple
tristan
micronucle
evaporation
edition
polyst
bilayers
stroked
identifiable
minimized
fence
melanin
Electronic
##omandibular
integrins
conduit
sleepiness
##rospor
##ophagy
purchase
simvastatin
classifications
##olas
facet
hydrolyzed
Listeria
##optosis
Able
##125
palpable
##otypically
##hell
##copenia
chloroform
S6
autocrine
infliximab
HSCs
immunohistochemically
nyst
##outheast
herniation
Mob
isotopic
##opeptide
carbachol
blasts
##oria
diuretics
CTLA
limbic
##ceptive
critic
CRH
Conclusions
workflow
damages
exclaimed
glia
exceeds
chlorp
economically
##box
Tom
manipulate
yards
multilevel
flushed
administer
##entilation
##Br
communications
##vet
##01
fluoroscopy
granuloma
stacking
##umping
urtic
attach
##osting
##nie
##ympathetic
RNF
Males
benchmark
SJ
conductive
##lich
IPA
alopecia
hyaluron
lysates
##razolium
toil
collectively
shrim
verb
DTI
Taq
probabilistic
KC
metronidazole
dams
slipping
Multicenter
deployed
##ivision
inconsist
disgust
mE
realm
Shig
##bye
pixel
luteinizing
CD16
atl
lymphadenectomy
backp
Manual
gown
flin
SOX
Texas
spasm
##uodenal
##atitude
mock
crowded
condoms
proliferator
Pilot
anaplastic
denture
mycobacterial
motile
NRS
enkephalin
continuation
##dney
##inatorial
metropolitan
Produc
provoked
##uters
director
gasp
##alo
pI
##iques
TLC
driveway
##atching
##acity
Progn
vasoconstric
amid
sinusoidal
gren
Cum
stagg
loyal
introns
expenditures
econ
seroprevalence
##iculus
shrie
##yld
appe
paracetamol
alkali
soaked
polyn
performs
disappoint
ramp
owner
cops
##oplank
chemoatt
##ellosis
transactivation
proteoglycan
saphenous
seawater
nanowires
23
##valent
vincristine
SV40
Psy
lymphadenopathy
##acillin
nuclease
##rement
marking
blunted
compute
##ocyclic
famous
##90s
injectable
PEP
convention
handful
virological
##AST
##being
cancell
inev
cameras
implicate
dull
IVC
predispose
disadvantage
bead
harbour
gastroc
achieves
##iodarone
preferable
##burgh
Ray
pel
##VAR
Princip
Bur
intimal
##aly
halothane
ava
zoster
clarity
tic
##400
##oencephal
claws
DEG
mesothelioma
helmet
PGF2
chori
ITS
harry
##western
##onged
glycan
PCC
macrol
##ofil
precipitated
Testing
Blue
Cervical
kyph
syngeneic
Sox
halt
TLR2
glucopyran
##letic
clamping
diaphragmatic
Lack
##osylation
##erman
anthropogenic
ossification
myopathy
erb
##riol
##renorphine
dishes
PSD
fingertips
kV
evidences
Glasgow
analysing
inducers
arb
thinning
NGS
pave
jonathan
##amers
coral
Google
GWAS
syl
Imple
naphthal
shoots
scaled
nodding
##pA
mucous
centred
neonate
lately
##ophthalm
carl
##omycosis
##lational
Wille
weve
styles
Mig
##don
liposomal
Energy
cursed
popularity
gul
libitum
waveform
##H2O
hmm
RIP
psychotropic
workup
applies
sequestration
##aud
dural
probiotics
rendering
guanosine
motoneurons
propionate
Antibody
Muc
##ectic
romantic
md
responsibilities
inevitable
##bar
palace
##aP
TW
metastas
Hemoglobin
Fasting
patted
Triton
mycel
immunosuppress
anaphylaxis
##gluc
Markov
geometries
enucle
amphib
linguistic
hydroper
Proble
blend
grazing
insane
G4
APOE
cytosine
Peri
carpal
butyrate
##odynamically
Cle
scratch
empathy
calcified
##rified
quatern
##ofuran
CDDP
emitted
bleomycin
BAT
Scop
##aration
irrele
whim
sep
ubiquitination
steal
corners
perivascular
Ku
##operiod
##ortezomib
amoxicillin
##pecial
##R3
accessed
initio
theyd
adrenoceptors
principally
vitrectomy
diminish
methacrylate
##aneurys
Epidemiological
intraventricular
jerk
PEI
underw
seventh
ICSI
##anglades
thiop
jas
cups
biocomp
PBL
unresolved
burdens
comf
lengthening
ambiguous
1c
forec
##ospice
Stable
cortices
simplicity
abortions
intras
diversification
##rinotecan
##medetomidine
##ocene
Accurate
SMD
##iper
disbel
10th
PSS
Eligible
ller
##oxamine
castration
Td
lingual
responder
SIV
lasers
##agonal
INS
Exam
germinal
##aylor
Certain
Surgeons
##isin
##sa
unco
pericard
Perce
osseous
Comprehensive
##uoden
Foundation
unpleasant
employee
annotated
##VECs
##ulary
partnership
##orespiratory
compliant
digestibility
shelter
##itations
bronchoscopy
constric
acrylic
Kit
scot
##idene
##ador
stalk
polystyrene
TCDD
Lym
FITC
anxi
pes
cinn
tech
shore
PBD
##tense
yearly
haired
Working
rumen
nematodes
streptococci
tune
unusually
eczema
Squ
cyclodextrin
T7
##orient
communicating
flavonoid
migrating
##atter
oncogenes
RESULT
prepro
Euro
Upper
varices
personally
spirometry
scott
imprinted
discretion
Stem
##astere
implied
undertook
##overn
Person
foetal
Except
wishing
##p3
##oulder
crystallographic
kidding
Intraoperative
temporarily
Routine
pt
ABI
danny
##loaded
Banglades
abut
twisting
##riamycin
carcinogen
##gy
##PL
200
FAD
##unn
photodynamic
ambulance
TACE
cyste
wells
oleic
DMA
alec
rt
Willebrand
intric
masking
##enders
##assemb
##aya
coach
antimicrobials
corrosion
unfamiliar
##oviral
tos
heavier
Across
Switzerland
##henium
##rodesis
Bilateral
foraging
##avalin
##roz
parties
Obst
##olor
##romatosis
seronegative
stainless
chips
jol
tighter
##imine
exocytosis
garion
simulator
charlotte
lub
dimeth
Systems
Die
transection
RAR
##atide
##kappaB
##ruption
Thyroid
yeasts
##pole
gates
xanthine
##itize
Authors
enforce
4D
plung
LIF
rand
compressed
POD
cannabinoid
Finn
hypoc
##vian
electrocardiographic
convincing
nervosa
redundant
sales
##astig
##robe
fred
##QI
##iden
##ichever
tamp
producers
ATM
Fund
sorafenib
Mill
HBeAg
TNBC
moaned
Ability
##ipients
misuse
eigh
CCl
batteries
greenhouse
colchicine
Ug
##iture
fangs
pellets
bir
##olen
fluoroquin
salient
makeup
Apart
OL
##rosemide
Ty
fishes
zirc
##IU
##ticular
##rophylaxis
intervertebral
macromolecular
##ocyanine
hepatotoxicity
incentives
disappointed
##yard
nondiabetic
fusions
unsatisfactory
##romyalgia
deserved
Ke
##187
sons
ATR
urethra
deny
morphologies
##orrhiz
##aughters
meiosis
Ast
##ogluc
Hp
elucidating
permanently
##anch
##ucing
##fluorescent
##itizer
CLI
ginger
hindered
##oreactive
werent
##ydig
##ifera
##hog
##thermal
myogenic
circuitry
crust
coiled
##anavalin
boron
polyphenols
##iagnosed
CH3
##alues
##ulline
Recommendations
evolutionarily
Transient
groin
PDAC
alleviated
Dic
##menting
##reotide
intrat
protest
heartbeat
neurophysiological
##actam
Trk
Psychiatric
threefold
praz
readiness
##amilies
electrolytes
UR
ingredient
irrelevant
##D4
questioning
Enhanced
rail
paramagnetic
##tier
detectors
annealing
congestion
Endothelial
correlating
polyd
monitors
jenn
pathologists
jejunal
membranous
serogroup
print
cada
TSA
##dine
attribute
##ilor
##93
primord
expresses
NID
ache
traveled
##sky
transdermal
fatality
##hh
tipped
##CK
M3
##aux
outputs
evan
synergy
profoundly
ionophore
##Cr
cryopreservation
nox
##80s
immunocompetent
cake
E6
whichever
lace
##orylated
RAW
uremic
##har
helmin
genesis
tapping
##atases
##apsular
Mechanical
maximally
levodopa
bike
enemies
pts
appreciable
##parametric
elbows
Basal
steric
##oplankton
##riatal
slopes
myeloperoxidase
diastere
##MM
##lla
##agle
laughs
trailed
cages
##tigmatism
PVA
increments
lust
peria
goss
##acral
##itidis
carbamazepine
bites
glycolytic
discordant
ventricul
##uccin
ais
airflow
impregn
bovis
##PLA
arterioles
Fu
posttreatment
Rhiz
##change
##osi
polyt
bri
##Ks
circumferential
passages
##rosarcoma
cytoch
##implantation
##inflammation
abduction
atorvastatin
concordant
##nemius
governed
Adolescents
##tling
##olinergic
##orate
manufacturers
unaware
meters
P2Y
bidirectional
alfa
kall
panels
penis
RSD
disinfection
Remark
SPR
GAL
wicked
ought
methamphetamine
Graves
contras
##In
etching
appreciation
predators
ligaments
priori
##ofer
budding
planted
videos
hydraulic
Transcription
mite
annular
OPN
polysomn
campaigns
Protection
malad
Leydig
Improve
Rather
##hexim
noticeable
##atio
##ambiguous
rifle
insecticide
28
osteogenesis
##ocations
justin
myocarditis
CD28
Rib
captopril
chlorine
##130
finishing
feline
serge
gm
bowed
##abbed
kinematic
oak
Force
Oxidative
gill
amused
zomb
ribosomes
intensified
alice
microparticles
##openic
##oprop
extravas
ellie
##heximide
pruritus
SCH
phenytoin
GGT
LHRH
##elong
chemoattract
##adel
shorts
##rednisolone
deoxyrib
colin
##ryptamine
debilitating
Commission
prospects
##olysin
mutans
quadrant
##anzapine
##ohex
manufacturer
##irling
QL
##agens
##aques
bleed
combinatorial
POC
MSH
Sup
ez
tPA
##atech
holistic
photoperiod
Learning
resolving
Hyd
disequilibrium
Improved
stut
palmitoyl
Bart
strode
##limb
##cc
Reference
##oa
persistently
gastroenteritis
barium
sophie
##agl
progressing
Tim
interpretations
dynamically
maj
Earth
H2A
panties
transcatheter
##5th
dt
nem
cannula
amanda
favorably
syringe
visco
cognate
IRF
##ylar
seventeen
##oprol
restorative
zach
##coprotein
1990s
ICG
PSC
drake
mutually
complementation
CTCAE
floral
rifampicin
fission
orific
reflective
CCR5
osteocalcin
bronchitis
##individual
Deep
Aging
positives
fmol
##rass
Genes
carers
courage
Percutaneous
Excess
Exclusion
Alpha
hierarchy
symbol
heifers
basin
Enterococcus
condensed
cystectomy
EMR
##embers
phosphoinositi
Prec
PQ
##EE
##olide
cylinder
placent
frustrated
albino
##tigmine
arrow
hannah
childbirth
massage
grows
schwann
shRNA
globe
reversibly
Pakistan
psychomotor
bandwidth
##urized
oestradiol
##6A
##itudinally
unrecognized
vire
##osyltransferase
Volum
##angiogenic
MAD
##tite
repairs
##mates
##ophytes
##cortisone
passes
issued
##opard
correcting
NCC
AHR
TSC
tetrad
Xa
jail
hatching
serologic
deteriorated
dated
genistein
intramedullary
humeral
extubation
##serine
##inia
##mond
aura
##loxacin
MACE
2D3
adopting
pleiotropic
EGCG
##SF
graduates
shots
NICU
##icting
Caucasians
##ractionated
Malignant
##test
##esthe
promises
sco
Color
##lofenac
##otomies
dylan
isa
conservatively
kevin
Ministry
kain
compelling
infecting
##liptin
Turkish
eosinophilia
rectang
mack
rhamn
RESULTS
LOX
exploded
intend
colonized
##oplasmosis
scrub
digging
UD
pacientes
Reporting
oropharyngeal
PLA2
chondroitin
##adjusted
Psyc
finn
##users
fluconazole
seats
advocated
Drugs
coils
##owl
hypoglycemic
nebul
colorimetric
##atches
hospitalisation
effusions
manic
susan
Every
##ploys
dealt
pity
##ogenin
tags
Occup
##ysm
Atrial
##orpor
efferent
confinement
coincided
CMT
grounded
sentences
RY
wherein
ned
municipal
toll
##years
diclofenac
##ijing
##itherto
unambiguous
nong
bees
##oquine
parted
alar
NH4
electricity
endocrin
bart
sheriff
War
copolymers
GRP
##ingual
herbs
vagina
pharmaceuticals
organisation
furniture
TEE
coexisting
Relations
cerv
reabsorption
fermented
neurofib
gavin
epoxy
defenses
CPS
##oreflex
confront
Statistically
astigmatism
##adol
Dual
trin
phenobarbital
##hawk
m3
Reson
##IONS
Clear
FAK
delineated
rivers
roland
analyzes
fishing
PTA
undesirable
sque
Chest
##2C
TEA
Wales
##UP
imported
Investigation
rearing
##terns
Grad
internalized
lakes
minds
##ultural
##riors
reposition
accepting
##riz
shudd
gastrocnemius
##placement
moreover
##thy
handled
milieu
shining
CSC
##shot
unic
amplify
periodically
##eman
simpler
##istive
##angitis
ketone
seeks
##ronine
hypom
##utyrate
Genomic
Intracellular
mm2
Unex
Trypanosoma
Retin
Lu
Treat
incisors
##cis
outstanding
CFS
proliferate
commens
faecalis
Nucle
##aters
Technology
##anum
stirred
antine
oncologic
scrambled
Ky
concentric
chrys
cones
illegal
aminobutyric
audio
thrombolytic
##othermal
LAB
daughters
sits
PSP
1980s
uran
Childhood
paris
Eb
##athiop
##ubertal
Norwe
priest
homod
nephrotoxicity
glucosidase
pairwise
##NN
refraction
herpesvirus
impulsivity
inflation
delib
HUVECs
##vol
##heart
##oser
Ireland
##101
##arine
##elly
discoveries
Measured
DX
##robenz
3a
anybody
amus
##entioned
intraclass
Quanti
electrop
##analysis
aldehydes
reside
manufactured
##SM
Percentage
##unar
Duration
##aner
##transferases
alternatively
shrimp
DPA
##IKV
##arl
Dox
wellbeing
knuck
dosimetry
Core
laz
B16
##picuous
recanal
Tob
##angeal
plastid
inoculum
##SR
QD
RhoA
##weed
dispersive
jordan
certific
languages
email
mitomycin
CHOP
noncom
AHI
cilia
##foli
##ometabolic
##ship
merit
Odds
ocul
hurting
##otrypsin
COL
math
calcine
parasympathetic
interobserver
concussion
NZ
##ucine
##ismus
flaw
PMS
buz
##asion
warriors
##BV
recapit
##rehend
migrated
isopren
antimal
##ikre
##fire
lipoxygenase
useless
brian
forb
gag
##iciting
##umann
lighter
##iferous
tann
shuddered
Viral
employs
utilisation
resonant
##Man
##r1
##arboxylic
rebound
kay
lectins
assass
hypotensive
perineal
calpain
PMMA
saturday
pupp
hydr
Columb
Scanning
##phos
Pc
LTC
concert
generalization
nonsteroidal
Enzyme
interferes
hyaluronic
Lac
harness
phenanth
robe
##untarily
DBA
muscul
##igs
maternity
##vus
darling
agrees
invading
DNAs
##esters
##arcomas
ancestry
Receptor
calcineurin
Echocardi
##rc
E7
##oregional
ovalbumin
##isen
campus
probed
habitual
##chestr
biodegradation
researcher
extrahepatic
kyle
##antine
##children
crosslinking
##havi
sensations
relied
meets
Adherence
unresponsive
##imers
epidemics
polycyclic
arthroscopy
subclass
ara
Electroph
##orphism
calorie
CAG
Strategies
pheochrom
wink
potently
stil
bacilli
holiday
Concomitant
tracheostomy
PNA
flavor
flush
CTS
contradictory
corrects
Elder
pm
##yz
firstly
nervously
OHD
mayor
shivered
Critical
cyclosporin
Hypot
gil
##ige
troch
Avail
immunophen
##front
anastomoses
Il
##position
V2
contrasts
Iss
exertion
##odone
cec
##ritten
Effectiveness
competencies
intrag
mindfulness
ovine
nanocrystals
azo
GPR
budget
Ble
gamm
Living
##erus
Consum
##athioprine
##urf
##omedial
TJ
##ermined
kelly
##mare
Run
choked
della
mystery
supervis
AGE
valued
reacts
sympat
reminder
homologues
##electronic
crushed
hemip
##kh
coincidence
daemon
ROP
histones
meningiomas
wis
hypon
orchestr
dagger
##icals
familiarity
dragging
eruption
permeabil
Bow
##timulatory
estud
rushing
returns
##rystalline
thermo
Cob
dysregulated
ADM
instantaneous
Compounds
Fusarium
clades
keratitis
Ket
##yrin
##ivir
CD19
ung
colloid
WH
Neurological
##ensives
##ruc
##planned
specialties
Apoptosis
DOC
soccer
t1
obey
##rotal
surroundings
##esome
punched
iner
march
rainfall
appointments
longitudinally
ri
orgasm
arent
Lastly
goodness
nuts
screams
inception
seroconversion
##oporous
Mutation
neighbors
##ildenafil
culturing
Correlations
controll
appropriateness
relatedness
avenues
anabolic
bears
pectin
##erable
virions
ultrasonographic
inert
fragmented
##ylyl
##stones
##azed
LOH
crawled
Sed
repeating
predefined
##orel
hopes
mailed
##ACs
captive
ICI
persu
stenoses
LPL
diagram
sorted
Decreased
acquiring
fond
deafness
aperture
antithrombotic
blots
organizing
##gulatory
spasticity
antec
cardiomyocyte
steering
Literature
clas
S1P
reservoirs
membership
##arcer
##emn
XX
stump
profit
Mamm
enterocol
ALI
nicotinamide
Native
dwell
##uin
CBP
kicking
strictures
races
borders
lav
gib
hypercap
deserves
halogen
##pering
##Gl
institute
influential
carpet
##modified
Target
evacuation
distilled
facilitators
##held
MDCT
cautiously
pR
##aid
algal
buds
heterochrom
carcinogens
constructing
BCVA
##vinyl
delt
##imentary
clad
##oconjug
biphenyl
gwen
Lat
kernel
BCS
agglutination
BMSCs
enum
fundament
Sb
##opamine
NAT
entrap
substituent
antral
17beta
heritability
isopropyl
optimally
pneumonitis
prest
NPV
Field
contaminant
commander
obsessive
Creatinine
Advances
IIIa
movies
##anners
RGD
radiologist
teased
biomolecules
subclavian
Associated
timed
calend
indeterm
tasted
##adish
oxidizing
meningioma
Pharmacokinetics
silenced
gingivalis
Luc
commission
survivin
##odomain
Zr
airport
Norwegian
##ctomy
swab
unsel
afterwards
jenny
arthrop
Barrett
sarcoplas
stimulator
##apore
compromising
Phyt
##optera
##olem
complemented
##rusor
viz
elastin
flicked
nasc
TAS
deacetylase
modulatory
##obronchial
SCF
furosemide
quinone
EGFP
Casp
##TI
spectrometric
hospice
amplic
Hip
systemically
destination
Sephadex
##junctiv
Rehabilitation
Land
##ierce
establishes
SAD
##merc
##k2
granted
cooked
quaternary
##tily
##ethal
##WD
broiler
##ko
LC3
Inability
fibrinolytic
KI
##russ
##icc
##omyosin
nightmare
Langer
tries
homologs
postg
concludes
unint
Raf
JAK2
freak
linkages
##avicular
economical
FVIII
##94
##alic
bulky
hots
ESC
OPG
DNase
spac
conversations
BCL
##pose
Reported
shud
penal
FLT
sedative
initiates
magneti
lane
##ogastric
fee
athletic
Asians
MIF
##ga
##omi
##hexidine
##EX
lover
Sulf
glimp
undiagnosed
PPA
readmissions
##inder
friendship
confidential
catabolic
contracted
##mi
youngest
artificially
pepsin
trichlor
lesioned
##oprim
tumoral
persisting
Kinetic
penetrate
##ocally
Principal
Kenya
##oton
##unate
discriminative
##adas
vertigo
PML
##ptosis
LRP
Respondents
SERS
prematurity
coagulopathy
zoonotic
ceased
##NFO
##c2
unim
##iphatic
K1
doxyc
IIA
frost
##structive
##ulsification
hypoxemia
PVP
##opped
noxious
##issible
osmolality
advers
eyelids
Typh
ANA
Kir
smartphone
remediation
incredible
groan
pipeline
myristate
shar
spat
moll
thunder
CFA
avenue
aberration
##healthy
amend
hub
stubborn
thicker
jos
satisfy
Mixed
computers
##coholic
recurred
hitherto
friday
macaques
XI
SDF
##romal
lee
VCAM
heights
DENV
##pliance
Florida
Obstetric
ankyl
viscoelastic
Mitochondrial
rows
associative
##armacy
shuttle
bye
Fatigue
anticonvulsant
dinucleotide
annoyed
BOLD
segmented
##ovsk
##lotinib
holog
nd
cush
carboxylate
##agglutination
raz
##obiliary
knelt
recovering
Right
squat
##SO
bubbles
prevailing
wishes
##otin
Colon
##phig
prospect
##ulitis
hypocal
mainst
shy
Sp1
autoradiography
colt
Hybrid
tuberculous
BCC
##enan
jackson
bibli
##vial
paramount
cM
sunday
##ynucle
teenagers
Washing
demyelinating
fixing
##orters
millim
matthew
##oxygenation
##300
##odysplastic
anticipate
bits
cyn
methylprednisolone
##oxidation
##ivudine
paradoxical
formerly
Fract
noble
deliber
metaphase
##russide
transthoracic
underground
intelligent
dT
cryptic
dante
##adenosine
autoantibody
pollutant
meniscus
unbi
aneurysmal
shouting
dosed
##rotected
SIRT1
heterodimer
shoe
hemostatic
antich
##idian
waving
##urus
rug
##rinsically
Hunting
merits
##erae
PEEP
Son
risperidone
delicious
directing
typed
##oeba
BDI
amusement
chemiluminescence
Proc
grouping
tonsill
strap
##ogenetics
##ympanic
MCS
dissimilar
unavail
limp
draft
##GL
johnny
accompany
NEC
bacteriophage
##He
Highly
palmitate
RLS
##ean
TAT
##lord
##original
wool
regenerating
penc
Observational
##maz
##uncan
FRET
tram
torture
retrieve
##imetidine
chow
glimpse
rin
tailed
sweating
##repres
metabolically
HSP70
unbiased
contracture
##ikrein
xylose
literally
hyperpolar
##azem
env
pc
##VEC
backs
##zid
7th
settling
obt
octa
District
sinusitis
##orhabd
Temper
ornithine
##eradish
##omia
##hans
regenerated
cannulation
##ecitabine
##othermic
##atia
inex
distension
MYC
fossil
inequality
microch
vasospasm
Roy
doxycycline
##HODS
LMP
probands
glycation
organelle
gy
##strophy
whit
histomorph
jeremy
CMC
bruce
Again
MCC
sab
Chile
succeeded
Soft
Identifying
isotropic
##oproteins
clamped
noradrenergic
foref
motioned
contributors
miniature
##pot
uncor
##arris
MMT
coin
EtOH
stellate
helen
derivation
gif
Plan
unexplored
nich
##arterial
distract
ABL
basilar
varicella
enrolment
distrib
neuroprotection
accred
explanatory
Beijing
congruent
synthesizing
SPE
Uncontrolled
Cit
retinoblastoma
radiosurgery
##otypical
BZ
irid
styl
decorated
extraordinary
Informed
rud
Kap
drawer
##aea
aloud
inflammasome
wildlife
##ivol
hexa
##otional
stringent
##ectants
tearing
METHODS
##encephalic
colp
superconduc
devon
strained
disbelief
Parent
chimpan
integrates
##GI
Basic
MTHF
cycloheximide
hematuria
Simple
aye
polluted
astrocyte
NO2
Acin
combustion
haemodialysis
relational
##oxan
##opharmaceu
visitors
##opar
Event
##ENT
biocompatible
Lt
##izar
knight
glances
midwives
##oposterior
Colorectal
photocatalytic
bats
ORR
modal
curing
##pected
fled
prisoners
##fused
juxt
##iensis
pistol
pheromone
Removal
reductive
tentatively
Circulating
keratinocyte
carotenoids
immobil
Resear
dude
shattered
6th
ankles
termini
cords
controller
##unks
Bt
remar
##olester
expose
Prolonged
##uches
exponentially
epididymal
durability
smoker
permissive
maxilla
stoichiometry
incompatible
STD
##methyl
##odynia
##SO4
geometrical
thermally
biotrans
##itorial
mycobacteria
bpm
HCM
mond
accumulates
Sph
PrEP
cardiorespiratory
antithrombin
verm
Histologic
A23
Tx
Transplantation
aston
Optical
irinotecan
Psychological
concentrates
illusion
Ara
nominal
LED
annexin
GAS
tyler
Conn
fierce
##iento
leans
mantle
ANCA
Sig
pigments
##itil
observable
troubles
##oche
##orously
##rP
##olis
walled
##ospinal
pupils
##ubstituted
dephosphorylation
clary
##oprolol
overcoming
dentistry
##arche
RET
GK
assignments
##endel
Memory
toilet
triad
pom
##N0
mS
WD
terminally
nitroprusside
eliciting
tumorigenic
DHT
##kg
##hemoglobin
accelerating
Cushing
aphasia
Tolerability
##acoustic
##balanced
stimulant
C7
##ZV
aliphatic
dave
bodily
##rax
##iopia
invitation
##rowed
dihydrox
##arterectomy
Cou
Elderly
DEGs
##ivirus
amiodarone
Cz
##obenzene
mastic
Polymer
##tera
autophagic
UM
##1b
Revised
sexuality
ISR
##nings
instrumented
sarcoplasmic
##regation
stacked
usability
complexation
Epidemiology
complexed
##craft
Maximal
mart
glucuronide
schistosomiasis
immigrant
palatal
CD11b
##usate
impressed
elicits
thior
lowers
##rodynamic
CH2
##xime
reconc
detects
dissatisfaction
##uropathy
unsure
##Fv
transparency
ASP
exchanges
photoreceptors
blastocysts
lexical
Ultra
leaching
olanzapine
Personal
foolish
phosphatases
PVR
goodbye
Singapore
Cam
ruth
sT
isoflav
Gastrointestinal
thorax
yep
##gers
##othyronine
EVs
##beta1
nadir
skim
flutter
oophor
##ocarb
Remarkably
flank
##onol
Ovarian
##ip1
Randomised
IAA
install
##YS
osteochond
Histopathological
KCN
rearran
hydrocortisone
insemination
##uronium
neuroscience
degran
##NG
weighting
##lycerid
Scopus
unsuitable
subch
##ogy
Parallel
Vaccine
unselected
See
kane
flashes
psychic
inclined
insecticides
metabolomics
##INFO
wherever
##osylated
##fo
bivariate
mastitis
plating
##inning
lymphoproliferative
hypogonad
corneas
##ellulose
Kl
putamen
tetrachlor
incarcer
pragmatic
zoe
lyase
##c1
##irin
nascent
religion
##ellae
buprenorphine
##acyclin
valgus
##avier
stillbirth
booster
Record
MEG
dysplastic
CSCs
gynaec
##vesical
backpack
##uris
immunocytochemical
tunn
locoregional
callosum
demyelination
hexagonal
sparhawk
##entina
migrants
instruct
##agmus
receives
worthy
##ervative
##ilson
disconn
Unexpected
stride
lesson
##ucking
popliteal
rH
LVAD
Report
imagination
Enterobacteriaceae
Finnish
NHE
beverage
Serious
anchoring
##70s
identities
Cumulative
##etus
##idated
MMF
Bangladesh
##BB
##ipenem
glycosides
fractured
apoB
Nep
temperate
weaknesses
intraoperatively
dorsolateral
ADH
PER
ABO
Deletion
Progression
unmodified
singular
Achilles
canopy
photoelectron
boun
Haemophilus
highway
Regardless
##tiazem
exceptions
##atumoral
##stalk
myotub
cholestasis
winked
precautions
chondrocyte
Schiff
guardians
infinite
COOH
melissa
LNC
pA
unhealthy
hematoxylin
crad
polyposis
azathioprine
##yright
manure
Insurance
Eryth
privi
blinding
emulsions
##alkyl
demonst
##oward
Ult
multitude
litterm
##embran
Aud
LVH
underscore
##ugging
##acular
pedest
rarity
rav
##olimus
##oidy
photons
##gener
antiv
cholangitis
hemispheres
apologize
sulfon
##ictions
indeterminate
PBC
##accum
wheelchair
Ampl
gynecological
staphylococcal
peptidase
##VS
chelating
progresses
translocations
OGTT
CD10
extravasation
cuc
halo
Reaction
trevor
continent
WW
##soni
dissipation
hypoglycaemia
##adec
roads
##albuminuria
whipped
sympath
afterward
shielding
imidazole
genit
C8
julie
VAP
ny
PTB
spirits
shortest
adrenocortical
r2
DOI
##iac
furious
hexane
##mph
diph
##atie
##flies
Colomb
corrections
##orbital
Thai
manipulating
##nourished
neurovascular
recruiting
atherogenic
resonances
Theore
##293
summon
##JD
fires
ale
##ennial
##asthenia
evenly
administ
prokaryotic
dendrim
##attering
myster
autistic
Volunte
SLI
DCIS
Amino
asympt
##atur
restrict
##RO
resectable
allop
esophagitis
##edes
gonadotroph
Dip
FLA
##erebro
CCI
phages
contiguous
##entesis
##KI
mU
relaxing
balancing
bortezomib
drawbacks
##oselectivity
itch
antioxidative
sidewalk
ligated
##ostal
lubric
transcriptionally
draws
victimization
visibility
toxicology
crept
Cx43
phasic
nitrous
moth
electromyography
psychiatrists
aptamer
femt
computationally
stark
pharmacologically
towns
Ethiopia
calmly
Persistent
oligosaccharide
##welling
##iolitis
UVA
hematopoiesis
##nesota
S3
favoring
alve
offices
subtotal
lawn
accommodation
avers
##osseous
Ki67
SNAP
detrusor
hyperplastic
flashing
refine
Especially
alike
roar
Sperm
progestin
soap
Frequ
lecture
AUD
Ae
CA3
shane
melanocytes
strikingly
##breeding
entrapment
aro
aeg
Document
##bie
##oub
plug
demethyl
hernias
##ource
cv
contrasted
Symptomatic
exchanger
##ipe
##ridge
calendar
linc
Gender
compiled
cocked
oligodendrocytes
Academy
Iranian
infrequently
Washington
##porter
fasci
sows
insults
hairs
nations
Schist
jejuni
Mol
helicase
clutched
PSI
remnants
questionable
citr
HIT
fibrinolysis
fumig
##6a
Aw
phonological
quinn
##aracter
##nut
shout
discriminated
Imm
crystallography
transg
disappointment
requests
historically
annulus
ECD
Digital
T0
decis
equivalence
lawyer
fluency
cox
##col
hypertonic
##Met
tunneling
##BW
growl
terminology
##admin
##italopram
hemispheric
renewed
Huntington
Reli
ell
mesoporous
Rs
haploid
unh
Indones
gp120
##ouling
aseptic
syll
blowing
Ben
melted
##patial
##uracy
Theory
##araldehyde
Langerhans
##erin
##ovan
Pathological
tart
##umble
##bird
caregiving
spliced
##N3
antinociceptive
##orementioned
leukotriene
cyclization
PTCA
##arct
suburb
##JECT
estrus
Birth
cloak
##ostosis
##osable
inflow
PIP
youd
horseradish
diol
vascularization
quadratic
Irr
Chol
continence
##etobacter
alloys
polished
Melan
listeners
Wal
##izability
##obl
uPA
thri
functionalization
chemosens
##pergill
divisions
##raying
aforementioned
urticaria
proteoglycans
splenocytes
Law
xer
Knock
##oniazid
CMS
##ospermia
Tib
lobby
ripening
developmentally
##VP
rew
intert
grunted
taller
valine
##MB
prices
TKI
Hox
emergencies
jewel
mason
weakened
mang
miranda
Federal
directors
OI
default
sarcopenia
taut
XY
loneliness
exome
aggressiveness
Gynec
intoxic
mainstay
asynchron
marble
rainbow
folk
##plen
##endym
gonorrh
##F4
digest
ensures
granulomas
Lam
scholars
IUGR
RFS
VWF
roger
glab
##ypti
lang
phytochemical
bioreactor
nope
##angiect
ICT
embolic
gavage
##meter
stolen
neuramin
ovid
NST
nasty
##cysteine
joseph
cooperate
nystagmus
fuller
illuminated
winced
Bol
revel
aspartic
preg
naming
voltammetry
Mycoplasma
Initiative
agenda
avoids
derivatization
##vest
##iformis
##ivalence
Medication
superimposed
cp
Institutes
##ropion
depicted
zona
##osynthesis
##enorhabd
cadavers
protozo
alkaloid
uridine
##triglycerid
hydatid
##rina
Thereafter
carcinoid
LIN
orphan
goddess
Alternatively
EZ
aerial
swell
##plings
Sar
BIS
CQ
##RTC
capturing
decent
seeding
candidiasis
##iclovir
lipolysis
danced
##eor
altogether
cochlea
Regular
adoptive
lifelong
##net
##kinetic
Venous
subdural
##cophen
SAA
wheezing
telemedicine
##eav
Antic
##exy
##ophyte
homogenous
Tool
cupped
conceived
Multid
Aortic
vivax
executed
chemoattractant
##hydryl
fragility
ppb
wiz
##anto
Researchers
SAT
##syn
ROI
A23187
##fs
##antial
vap
##Health
PED
Adolescent
assimilation
MCL
oligomeric
angio
##roglycer
Panel
Acinetobacter
##H3
denatured
##eum
neurobiological
##ithin
Site
##folate
NF1
vWF
freaking
cil
unil
swiftly
##ando
tetrac
sticking
plum
tails
como
resumed
##sten
##urface
##itidine
##ophe
hallucinations
Alk
proto
owe
involuntary
##lance
HBc
phosphoinositide
favors
##orthy
PBP
rubella
Topical
achievable
FABP
Toxoplasma
porphy
throne
intrinsically
Antim
PACAP
Neutroph
sie
torso
inhibin
##ymphed
Seg
ghosts
greeted
NLRP3
HNF
CYP2D6
argues
echin
rag
slender
SUMO
##flora
##V1
##ollagen
humerus
rape
pork
telep
lacrimal
replacements
##agliptin
booth
##ibbean
roared
Occupational
##agne
PLS
Intr
thermost
##apheresis
##itiligo
biotic
moan
fec
granulation
##iors
transfused
reinforcing
##iona
##regulation
biomechan
##hydroxy
##tigens
tourn
DNMT
Ry
hyperpolarization
occlusions
propos
excurs
cereal
subspecies
Introduction
photochemical
lec
extracting
Rank
spr
ron
interim
potentiate
moderated
awakening
##mM
metagen
##eres
##okal
toy
##ouns
omeprazole
microinjection
Fraction
Subgroup
##atremia
trehal
##altrex
perioste
swinging
beneficiaries
Employ
duncan
ceremon
Govern
lia
sideways
hydroxytryptamine
##rochemical
##Bank
##arction
polyg
reef
entitled
backwards
Nur
phleb
shells
##enzymes
scenes
Determination
##lete
RCA
crosstalk
presump
pizz
shudder
DDT
beard
V3
united
##hard
##agas
mistaken
cholerae
artemis
losartan
##elli
AII
nonsmokers
parturition
Cas9
denitr
crowns
jessica
Influenza
heather
transvers
metabolizing
earn
##ocalization
inefficient
concanavalin
G0
##oglut
defeat
Heat
FAP
yoga
##uating
##orse
defibrillator
lept
acetylated
lonely
universally
tryptic
antiinflammatory
##acyt
exocrine
##urities
localisation
##operfusion
##amente
crashed
brave
ownership
Values
##ensory
patterned
galectin
##imidazole
stuffed
Best
Radiotherapy
Cis
neoin
runners
phantoms
Owing
localised
Ker
##pret
##enzo
quartz
G6PD
IDDM
orifice
##ofovir
##omplex
temporomandibular
##gehog
##awning
rome
##2O3
##yo
Neiss
ducked
adapting
trimethoprim
ILD
unplanned
dialysate
waveforms
accessing
##oeb
##ourne
##oxides
bathing
##entgen
thrombi
armor
##ischer
cryopreserved
trapez
infarcts
hunters
pemphig
##arity
plasmonic
intersection
haemolytic
hired
warn
immersed
acidity
neuroinflammation
adaptor
##ourea
basophil
hank
##onecrosis
ApoE
hills
ragged
emerges
MPTP
##180
Por
rumin
grape
ferro
##SAR
WI
Larg
sweetheart
casually
mama
tampon
calcane
inspiration
innovations
##iloride
CAL
pus
Characteristics
extram
unintended
##ela
texts
##enton
ruin
carotenoid
pipe
##omorphine
##fig
subma
Spati
##ceps
Iso
Youth
ambig
unprotected
unified
stripped
emotionally
microdialysis
##etaldehyde
QS
##ffer
deliberately
pseudoaneurys
uneven
AJ
drastic
stef
##tins
installed
Pass
katie
Polic
malate
PaO2
jill
nanofibers
CIS
divide
Subs
eta
strengthened
parag
instinct
enantiomer
jog
##aceted
Miss
oxidored
unse
dG
Consider
Latino
MAbs
incisions
nonex
Better
exams
thinner
transcriptomic
beck
Macroph
cimetidine
phthalate
caf
##rition
##96
Operative
Eph
##arctic
lae
##biotic
reputation
charco
##RTI
entang
Ess
##RSV
misfold
polyamine
earthqu
sanc
ANF
ct
COP
uniformity
dexmedetomidine
chlorhexidine
Anterior
auxiliary
glycaemic
pierc
uncharacter
bold
BMC
chloroplasts
retirement
bleaching
waveguide
clarithromycin
laptop
Intestinal
aneuploidy
##1B
Hi
Thoracic
Pax
Today
quoti
DNP
Ros
Ion
##aem
SCS
ESA
##oad
staircase
speaker
hopeless
6M
obliter
Nutri
pea
noisy
##tedly
nonsignificant
##axone
USP
##leg
optically
antidiabetic
SMR
enhancers
whispering
nonad
calcifications
uncont
cystatin
unbound
osteoblastic
unlabeled
##efitinib
giggled
ESS
anteroposterior
convex
bioge
denied
alcoholics
HAP
##apers
stu
##cholic
##ymphedema
Secondly
##perse
absorbing
##ographies
PLD
chymotrypsin
LRR
##bands
##olding
possession
alexander
##idy
##anics
dehis
Contrast
interconnected
##phosphatidyl
reco
pinned
Checklist
Thy
Eco
Subjective
Alterations
hypercalcemia
lucien
dilemma
arguing
membered
##yes
shotgun
HUVEC
GJ
##rik
Pharmacokinetic
hammer
Tm
##uri
Statistics
thyroiditis
##essing
glue
Emerging
##rontal
Morphological
##inol
glutaraldehyde
##SOD
##obe
Toxicity
##neal
fimb
IPS
isothi
Appropriate
##icola
isozymes
cardiometabolic
##IFN
##etermined
##reach
microL
LMWH
stressor
wireless
advocate
Columbia
PVN
##inately
sulcus
commentary
patience
predation
formulate
estrous
##E2
interrelations
comprehend
##oprostol
homogenate
cardiology
darted
dipped
faeces
Transc
neuromod
groom
##76
pellet
tracers
eliminates
bron
Perceived
patrick
prehospital
hesitation
nNOS
colectomy
conclusive
optics
disturbing
spaced
HBs
duplicate
jar
Numer
##TG
tolerable
cyano
asser
endocytic
undetermined
buffalo
##rapped
approx
Mouse
shocks
clicked
##ophenol
therapeutically
neuropeptides
biochemically
glycated
iodo
mattered
jean
ruined
elders
##hom
phosphates
ancestor
##ichigan
myocl
sweep
dilute
##opsies
revis
Caenorhabd
duke
##WA
##via
exploiting
fibromyalgia
commiss
Hispanics
CaMK
compassion
##allium
##ooled
nanotube
##ipient
homosexual
bullsh
permitting
begged
##rystal
meniscal
ritual
Adjusted
satisfying
MTHFR
##aC
Caenorhabditis
lanth
Holstein
succ
Cohen
Flex
##SCs
inactivity
classifying
kines
##ystitis
##eedback
Action
Estimated
covariate
contraindicated
viremia
evapor
https
adhered
##emp
Hsp90
deposit
Toxic
Lyme
##works
isoc
endless
jesse
##ounds
PAM
GSK3
metab
##imeric
##74
Sequencing
BO
newspaper
cardiogenic
PMNs
##zymatic
Cluster
hindlimb
seropos
sCD
refusal
LAP
Label
Uganda
repolarization
Profile
spilled
##oors
agglutinin
##occup
chemoradiation
heritable
##raconazole
saddle
Matrix
VSMCs
german
Wol
Nasal
darkened
##arming
yelling
endorphin
Tun
Aboriginal
coincident
Delayed
immortalized
##van
anatomically
rectif
CLP
##LDL
geographically
magnetization
##apsules
IHD
raven
##opolym
wipe
Implementation
agony
##oflavin
intraluminal
##200
ine
pursue
##inae
CBA
modifier
##91
ambly
stools
##erebroventricular
purchased
cholangiocarcinoma
ependym
charcoal
Carolina
landmark
aspergill
PGC
miscarriage
##essels
molyb
propria
externally
cache
anteced
Cav
concentrating
echocardiogram
exceptionally
sheer
awesome
congeners
Neisseria
bystand
spur
PCs
DLT
farming
##GP
##isecond
replicates
philosophy
##charge
##atig
##loading
stripping
anchorage
urokinase
Infant
TST
clath
happily
sphingomyel
regain
begging
swore
homic
##inent
EDs
heparan
facets
endings
Ald
transurethral
endeav
inductive
APD
zol
##rologists
##ympan
hover
##ivolumab
Md
Fast
HOX
attribution
clan
novelty
pretending
TCC
endodontic
license
Membrane
MZ
VZV
tertile
##Ss
lysate
coughing
MEP
hybridized
HCA
partum
NO3
nanocomposite
framed
cyp
Resonance
##ilyl
dome
proprio
GU
pursued
bottlen
##m2
SRE
Ran
appeal
Tests
Lesions
marie
extant
vague
doubted
SVM
abandon
exotic
##comings
bursting
Ct
dab
synonymous
##romed
capsul
wandered
##feri
##cripts
molecularly
pathophysiologic
quartiles
edward
shiny
incredibly
Rub
##di
spiking
VSMC
vascularized
LTR
decipher
Progressive
##allas
enforcement
tuberc
##ogran
Sched
Will
brut
purpura
snarled
internally
secured
creative
Rac1
adrian
Careg
prostacyclin
squeezing
thicknesses
oophorectomy
TGA
AMH
hast
embedding
##osporidium
liability
pepper
MWC
BALF
neurochemical
Schizophren
FLI
youths
sativa
##urring
Interaction
1970s
##ylon
##hester
oncologists
endarterectomy
Systolic
dash
Mas
weld
chaotic
PM2
Hung
IVIG
##arpal
marketed
##uding
##ongru
Hsp70
smoothly
infestation
garrett
##otrip
ADAM
mW
fetoprotein
Proteins
EFS
##occlusion
##achus
Satisfaction
Alternative
Examples
elena
##afe
Evans
multifaceted
PPARgamma
##ported
orthostatic
Mothers
##brevi
mistakes
CCC
JC
asymmet
pitfalls
crashes
banks
irrig
##iah
disinf
AuNPs
reck
myoglobin
CRE
Establ
cholester
callus
##aba
blown
hone
##cedural
gree
dollar
Infectious
decel
cognitively
judging
opto
bicycle
incidentally
NPS
##reng
##antha
pyridyl
HbA
intricate
endosomes
sensorineural
lacZ
Efforts
tyrosinase
myofibr
staphylococci
acromeg
nonrespond
molly
palladium
trash
leaks
folks
##imate
Unexpectedly
recon
invaded
blades
humid
neoc
deprot
rotations
diphthe
gripping
unadjusted
20th
GAG
keratocon
Royal
solutes
micelle
##regnant
TRPV1
mansoni
perovsk
architectures
##lights
spared
slim
accelerates
harms
stit
PFGE
equivocal
##MTS
##irmed
##othione
Arabia
bolt
Ratio
##iciously
atyp
##aire
##2b
##adiaz
calculi
apoA
cholecystitis
dd
polyne
crouched
##umbers
Inflammation
blinking
nanocomposites
bacteriological
sophia
##riaxone
submaximal
embrac
benzoyl
nucleosome
Improving
incisor
deser
sergeant
CES
ESD
PJ
##VC
SMS
sulfonyl
hypertriglycerid
inactivating
tiger
chyl
MBC
abras
unrest
estrogenic
Side
deaminase
delineation
##apentin
submandibular
saturable
postulate
##oS
##oconazole
enal
electronics
FasL
##ativ
leach
##osols
##butamine
ODN
##aparin
Academic
separations
NIDDM
urological
negativity
##plasm
CSS
globular
NADP
pumped
##ozoites
markets
multilayer
Willi
ashe
buddy
bere
##86
##hyroid
Adren
darker
renders
crisp
anxiolytic
Models
atlas
multicellular
##ostigmine
selfish
aching
homing
HCO3
antihist
Belg
TRAP
HAV
Tau
phenotypically
reliance
magical
detached
##ovine
##indole
nymph
Hill
##itar
Transplant
stole
territories
infra
stares
hamstr
##edoxin
##endazole
##ropsy
##anoate
mC
modifies
meanwhile
##encephalon
diltiazem
##ospatial
fecund
imprinting
kendra
Dementia
inad
buttons
recanalization
categorization
O3
alliance
pounded
EORTC
Fi
protonated
shortcomings
incentive
athlete
IKK
leapt
Impair
spencer
##ozol
Present
appearances
PZ
##chus
SOS
antimalarial
scary
summed
Transmission
##ultured
malfunction
vibrations
albuminuria
upg
Micros
Impaired
nonrand
complaining
##rily
hydrothermal
eug
neckl
Osteoarthritis
##itions
epoxide
Prem
dsRNA
##ellan
pouring
millisecond
aidan
slave
trains
dus
Indigenous
condyle
virion
fading
indexed
capacitance
oint
edible
quadrupole
immunologically
colost
switches
##uffed
PWV
teenage
adjuv
Minnesota
imperfect
##1I
musical
TIL
Receiver
presumptive
sildenafil
##altrexone
sulfhydryl
isoniazid
suprac
cooled
fulfilling
withdrew
sectioned
##IIa
tensed
babe
##oblastomas
Targeted
EPCs
monolith
##atids
OSAS
Shan
##bin
##inda
dobutamine
gide
Line
appendix
microbe
Extracellular
bullshit
nonl
imping
dign
fancy
BCA
scleral
baumann
purpos
##intervention
restrained
aria
dac
BAS
runoff
Spor
ortho
##osyn
rins
actuarial
ATRA
ANS
perturbed
hairy
collim
glit
tessa
boring
##CRP
demonstrable
PsycINFO
Bene
hourly
Neph
MDMA
dentition
Pet
##eri
Malaysia
##FAs
dehiscence
##X3
triiod
unstimulated
reluctantly
stroking
specify
modelled
estate
proficiency
Fr
LUT
descended
retail
servants
delaying
polyvinyl
##dorferi
GCT
frowning
duties
ultrafiltration
Cholesterol
##athion
micromolar
gi
owen
dsDNA
arte
PGA
densit
azithromycin
Mayo
##tious
inaccurate
anaesthetized
scarlet
Gem
container
[...]
